/**
 ******************************************************************************
 * @file    network_data_params.c
 * @author  AST Embedded Analytics Research Platform
 * @date    2026-06-24T19:17:31+0800
 * @brief   AI Tool Automatic Code Generator for Embedded NN computing
 ******************************************************************************
 * Copyright (c) 2026 STMicroelectronics.
 * All rights reserved.
 *
 * This software is licensed under terms that can be found in the LICENSE file
 * in the root directory of this software component.
 * If no LICENSE file comes with this software, it is provided AS-IS.
 ******************************************************************************
 */

#include "network_data_params.h"

/**  Activations Section  ****************************************************/
ai_handle g_network_activations_table[1 + 2] = {
    AI_HANDLE_PTR(AI_MAGIC_MARKER),
    AI_HANDLE_PTR(NULL),
    AI_HANDLE_PTR(AI_MAGIC_MARKER),
};

/**  Weights Section  ********************************************************/
AI_ALIGNED(32)
const ai_u64 s_network_weights_array_u64[20181] = {
    0xbe97032f3e96eb74U, 0x3db43afebe9d1d8bU, 0xbc05f8b1bfabcef4U, 0x3e011b17becae0feU, 0xbf391b763f27a89fU,
    0x3f14abdc3fb3e45cU, 0xbf5d4a383e9eaed3U, 0xbed173f0bf602ec0U, 0x3dfabb853c32e51cU, 0xbde2764bbf06f124U,
    0xbeef1afa3e38c5b0U, 0x3d16ce63bd78ac3fU, 0xbe65d627bd20a73fU, 0x3d80f6e73d40dca8U, 0x3e2586ebbeee5123U,
    0xbd4f91d03c6a8c24U, 0xbcdb2c73bd4b20aaU, 0xbe112077bdf7e3b4U, 0xbd1cbd93bc4a4ff2U, 0x3bdcbb2cbe089051U,
    0xbbf66ac33de0b2f2U, 0x3d87d71fbc67a3d2U, 0xbf442d4dbcca3664U, 0xbeb5c8d5bd3f2f8dU, 0x3ecc8fcdbf88ae52U,
    0x3f482b0ebf85b7fcU, 0x3eb2ee8f3e81f4cbU, 0xbf737f563f87b1e6U, 0xbe29028c3e8ff47aU, 0x3fe4dab0bf0b96d4U,
    0xbf3fa2eebf37d543U, 0xc05028a33ef8e3b7U, 0x3e52ea9b3f574c60U, 0x3df4298e3c4b37bfU, 0x3dd41adfbcad7c57U,
    0x3da02c4c3cb290faU, 0x3dfb884e3bf1ebbcU, 0xbf154ab9bd8784edU, 0xbf9b17c43d9823a9U, 0xbc8bc6913e301650U,
    0x3f8d6d93bdaa81d4U, 0xbec02e93be2a5645U, 0x3a8a44e3be00e67bU, 0xbb1ade0d3c027dc1U, 0xbaf0304abb4b3f45U,
    0x3bee43a63b52e433U, 0x3c5d0a783b9945c5U, 0x3e52bfcd3b6b6deeU, 0xbdf4e5233d74d43bU, 0xbee8f176bccfe83dU,
    0x3e6269bcbd86250dU, 0x3e9db952bd1f96a8U, 0x3dca03843e05162cU, 0x3f2d78203d786addU, 0x3dfba4aabe3ef4adU,
    0xbf301471bd5df1f3U, 0xbe3447a1be03965fU, 0x3d153df43e11c36aU, 0xbf86fff43ef42a25U, 0xbfaec97dbd34483aU,
    0xbdf5dc993f31136bU, 0x3ee61f6f3eb1a76bU, 0x3da185d6bd009894U, 0xbed091523d89bd36U, 0x3f42ade5befccddeU,
    0x3f9492e43dc6cbe6U, 0xbd2fd5e4bf762db0U, 0x3efd13d6beb39d70U, 0xbefd32a8bf6a2830U, 0xbe7aa1da3f99347dU,
    0x3d59f282bf0566adU, 0xbf086b593dca2675U, 0xbe804018bf5dff28U, 0xbfbd56fcbec0c787U, 0xbeacf8b0bf0c22a1U,
    0xbf7c5ae2bf4d9a1bU, 0xbf5f6a8e3e6c13e8U, 0x3e2b51aebfb20a14U, 0xbfd8539fbf487a77U, 0xbf3103bb3e645f2aU,
    0x3e6b814cbfc91ea8U, 0xbf9c55c5bf251835U, 0x3d34ec733e3a0925U, 0xbed90fea3e62ffd3U, 0xbdac32abbdb3d211U,
    0xbcaa6149be96f89dU, 0xbe9a90bdbdc65270U, 0xbe2011f4bcc5d4a9U, 0xbd7d68e2bebb429aU, 0xbe8fa420be886258U,
    0xbf4565df3f10ab36U, 0xbedb53e33e27d1f4U, 0x3ee7b07abf86d052U, 0x3f25df59bfaa0765U, 0x3fa2e4bbbfc9009aU,
    0x3f4b1fffbf21d5ebU, 0x3f86a748bf3de393U, 0x3fab9664bfc4e217U, 0x3f814385bfcd8755U, 0x3f62ff7dbf5b4915U,
    0x3de9c0df3e06af0eU, 0x3d7848423d940fceU, 0x3e1171413db6f39cU, 0x3d8c4f9a3e142ab9U, 0xbda834b63d9e4ac9U,
    0xbf47bf43bdf0aa90U, 0xbecbf309bd3fb5dfU, 0x3d6e32ef3dbe45c3U, 0xbf536686becf1870U, 0xbe9ea18ebeacc45dU,
    0x3c961bfc3cc16e29U, 0xbbdf727538f8d02fU, 0xbb34e12a3ba1f665U, 0xbc0941643b57f0f0U, 0xbc9b57dfbbcae259U,
    0xbed35e233d1e3bdaU, 0xbea262c93e9cd9c6U, 0xbea585243f5feebbU, 0xbe9ef43a3f194d87U, 0xbe88b2d4bdee0af3U,
    0xbd9dba11be04cc35U, 0x3dd297b8bdcff221U, 0xbe17b0b8bdc13fadU, 0x3d756cbdbe1385d2U, 0x3eba90203db7781fU,
    0xbf121348be94beb7U, 0xbebc3a03beb0182aU, 0x3e43a8f53c9a7efbU, 0xbebcacbe3d706912U, 0xbe8a6c52bed0d714U,
    0x3e15e0dabf103dbeU, 0xbdf7d89cbe282036U, 0xbd8c0a55bdd8b70cU, 0x3f0bc356bec51198U, 0xbe2480e9bf415406U,
    0xbe9e9997bf0348c9U, 0xbe96e7423d2efcd6U, 0x3e61c9debe3884eeU, 0x3d96cba0be77e356U, 0xbe8dd6c83e75e3feU,
    0x3e9da4343e5268f6U, 0xbd55eb17bdb48d82U, 0xbf2cd31fbe08a77bU, 0x3de15e7b3da6e31cU, 0x3e96ba1ebf1a166fU,
    0xbf0907623de7d0b6U, 0x3ddb5a4b3ee07dd6U, 0x3f040a94bedf712fU, 0xbe9a94063de514bbU, 0x3e67165a3ef82040U,
    0xbf0b8626bd659442U, 0xbd4a28efbdc07459U, 0xbda9932bbd5d841bU, 0x3e0721a33c905ec8U, 0x3afffcebbdc27b67U,
    0xbda1413f3e348ed3U, 0xbd0232afbc862044U, 0x3f321838be58ebacU, 0x3e3daacb3fad48adU, 0xbe11b6bd3f9dc041U,
    0xbe9ffbd43f68f18aU, 0xbf3f08f13ed83c11U, 0xbfabe1cabf9497ebU, 0xbf30e449bdb6af76U, 0xbea35450be5d98cbU,
    0xbe86c551becd53e9U, 0xbdaac516bd632249U, 0xbc8a5b313ecef580U, 0x3df257323d70157eU, 0x3dbb3e6cbd46d84dU,
    0x3e1b40e1bdb2fe2fU, 0x3e33674dbe2041c5U, 0x3c383489be804b38U, 0xbf14e2513f309905U, 0xbfd27fe13ef73f17U,
    0xbfd3deb93f7afd74U, 0xbf66c0973f808632U, 0xbb6c54f640084da4U, 0xbbaabfcfbc0d649dU, 0xbb1d67853a61cce0U,
    0xbb81ad2b3b8a20bfU, 0xbb56b6773ad62e64U, 0xbe4485173afa374aU, 0xbd7a1f103d47b420U, 0xbd466a53bd050d20U,
    0xbe18bcc03dc60798U, 0x3d923765bcb3597eU, 0x3d19be993d9cdb45U, 0x3e3c101b3e60e18eU, 0xbd9e39b0bf320a62U,
    0x3e9964bc3e5121ccU, 0x3e4547e6be17ca58U, 0x3d8929ecbea327faU, 0x3ed4e65a3dad7715U, 0x3e80d955bea89ea8U,
    0xbcdc806ebdc44ed6U, 0x3f41dca23da2029fU, 0x3e8a146fbee7a407U, 0xbca337213e421d6aU, 0x3f35cd98bd030f55U,
    0x3f0ae67fbf2ee6e6U, 0x3e1772d53d05b2e2U, 0x3e9f5350be807a8fU, 0xbe0091eabe2927d4U, 0xbe467df53d20b49eU,
    0xbea3bb523d4a6b53U, 0xbd9a1461bd5a0dbdU, 0x3f04370ec000a0a6U, 0x3fda7bb9bf2d6f70U, 0x3f14481abfb1e8eeU,
    0xbe8ce5ee3dcbeddeU, 0x3e252667bcc99be5U, 0x3dc080a8bf0082bdU, 0xbf5539953e44b683U, 0x3e814841bbf399aeU,
    0xbc3d249bbf7d72c4U, 0xbfb66e8f3e8b1eddU, 0x3d4463173de877fcU, 0xbd2e1b85bde7b2d9U, 0xbdae5f73bd2a5ff2U,
    0x3b47ccf2bd1d08a9U, 0xbcf661883bd5773bU, 0xbd43ce10bca67978U, 0xbc5e1e193c42e43fU, 0xbdead1d13d6d8721U,
    0xbf02bc163f14e9ffU, 0xbede5c223eb3409fU, 0xbedb4bb63e537bbbU, 0xbf487beb3de2df76U, 0xbe8552c03d8c5be1U,
    0x3eb33772bee5c298U, 0x3ecff37cbe6cfc27U, 0x3dbcd81f3eb8c4cbU, 0xbe644fb8bf190c80U, 0x3ef7cfa9bf52c147U,
    0x3dba39053bb03cd5U, 0x3d420d863d0fce88U, 0x3e427314bdb90e09U, 0x3e5cbec6bb9bf791U, 0x3e166a6ebdce9dbdU,
    0x3f8440b8bf859d63U, 0x3ea68464bd2a4921U, 0x3ef0ac86bdc0e553U, 0x3e3ee90b3e8643e6U, 0x4016048ec053d920U,
    0xbc05576d3c0532baU, 0x3ad2bc84bc1e4ac8U, 0xb9db3be63b3d2ba5U, 0x3b5588333c068f2eU, 0x3c08c103bb844d8bU,
    0x3e0fc54a3cbc24a9U, 0xbdd35f55bbffbf4dU, 0x3cd6650c3b7f3311U, 0xbd84b3cc3ddbc10dU, 0x3e87d6f1bc385618U,
    0xbdad3f913df19f16U, 0x3e8f1ef23d1e1701U, 0xbe5aa6c4be1646b1U, 0x3dac9ef03e2c51a8U, 0x3db4ad72bce7df40U,
    0x3ca82ad2be47518bU, 0x3e4f07ae3da52279U, 0x3e99e9243d167725U, 0xbd2468cebe3d10efU, 0x3f08e6b5be1e8dffU,
    0xbe5974dcbd8989b7U, 0x3e877e043e2880afU, 0xbeba3cbfbe8b5087U, 0x3eb5527dbd08f801U, 0xbf030ea8bf6496b8U,
    0x3f402e00bedb4a92U, 0x3e35f0bbbf2c6e6fU, 0xbf0e5c8d3f6fc725U, 0xbf5214333d99db63U, 0xbf029bdf3f2f6b72U,
    0x3e6b17d2be5995b1U, 0x3e8618b03d3f246eU, 0x3caabfc73e80e698U, 0x3dbd61e3be75e763U, 0xbddf64d93e7e9015U,
    0x3e58ad433e14960bU, 0x3e0f4f8abe780f48U, 0xbebbfa84bdcc782aU, 0xbe13250d3e29de5aU, 0x3d8bdde0be5626f0U,
    0x3e92c6a53cecb09dU, 0x3cbee059bcfa0a7eU, 0xbd1fe58f3d64fe3eU, 0x3d20b477bc142586U, 0x3c5e0904be23fa61U,
    0xbd0141b4bd130f5bU, 0xbddb9e0fbba5d122U, 0xbe972ac3be1d1e10U, 0xbeddce5e3ef32446U, 0xbe93f9cebe1f3e2eU,
    0xbcdbfa9c3de91050U, 0x3dab611d3ebc91b8U, 0xbf4712fa3e1ecacfU, 0x3f6683de3ed71193U, 0x3f76a909bf3acbefU,
    0xbf7a28a1bec9a852U, 0x3f3b5db93ded36caU, 0x3e56d3b4becd7f07U, 0x3e8b317dbc416438U, 0x3e81810a3af34262U,
    0x3e2d259bbd832113U, 0x3e6c5b56bd2ff0f1U, 0x40888a843d928167U, 0xbfb13b21c03b1774U, 0xc03871013f6ca113U,
    0x4018e7763ff2e4e6U, 0x3f1eefcabfcde680U, 0x3a8c92b53d36c95fU, 0x3b3f11613b9e4375U, 0xbc3429d8bb93918dU,
    0x3a2f990039a741a0U, 0xbbf4863839d9c90eU, 0x3dd7bc5f3b88879dU, 0xbcf41c30bf4390bbU, 0xbc31ce133eea049fU,
    0x3d05246b3e9b8f46U, 0xbd23c155beb69fcdU, 0x3ee8e24f3df96238U, 0xbe6666cebddbc9e3U, 0x3dee215fbfc2fe49U,
    0xbdd065a83fbe8238U, 0x3e54618fbeda55a1U, 0xbdc7acfe3f1a6dc4U, 0xbec22b98bf03577eU, 0xbc4a8cbbbe886ee9U,
    0xbe13b2df3f8ff84bU, 0x3e2a9736bf80e85bU, 0xbe2012f13ec26129U, 0x3d21a77ebf6bed55U, 0xbc95a5b23f662515U,
    0x3e76ffc7be802ab8U, 0xbd4132e63b8a2462U, 0xbeb77307bd8a0ed2U, 0xbfb2e7434024510aU, 0x3f30b579beadd22dU,
    0x3e2ac759bf2b15cfU, 0x3ef998cbbe439dd1U, 0xbe2ac1bd3eeb35a4U, 0xbda273743f3342ceU, 0x3ec5d07dbf099f70U,
    0x3cd3cf073f0180abU, 0x3f27586c3d551bd3U, 0x3d9479f23e025254U, 0x3e3f84523f415d40U, 0x3f241453bc9337c7U,
    0x3c0eb0563e240770U, 0x3e781ee63f174634U, 0x3c82edecbdd075f0U, 0x3d861e7b3dec118cU, 0xbbcc2094bbbdc644U,
    0xbb3dd84a3d15fd17U, 0xbd3a3e5d3bc23d1eU, 0x3d01027dbbae118fU, 0x3ca4cb21bb3cbeb5U, 0xbca14fb33d44a2eaU,
    0x3e05bfa53e42202eU, 0x3ebc3d21be8c0969U, 0xbd295dff3cc519bcU, 0xbe6658f63e141a1fU, 0x3d25202b3ea7c1ebU,
    0x3f8ade08bfba585cU, 0x3c06f4d63f09a7bbU, 0xbd73fd583f4d1101U, 0x3d7c68b73e5bf468U, 0xbea76a6f3eea0155U,
    0xbd5131c7be56a32dU, 0x3cc40182be250ca0U, 0x3cb34115be5c6352U, 0x3d92f69fbe623ed7U, 0x3e0a062abe7efb00U,
    0xc0e21e1b412a49dfU, 0x3eba307abfc6807eU, 0x3f3b1cfebfd73104U, 0x3f0b2c30bf6244a5U, 0x3f4cf8adbfa974ceU,
    0x3c0aeb74bb1fecb6U, 0xbb99c03b3b1a16c5U, 0xba243a52bb75d5f8U, 0x3a0a85863b92a20aU, 0xbbb367663bc49e1eU,
    0xc06316273da9b103U, 0x3f405582bce6c4c5U, 0x3f36f65bbbed3519U, 0x3f178de43d2d4851U, 0x3f192c0b3d41bd7bU,
    0xbd15e9e73e87b018U, 0x3f90ffffbe4c26bbU, 0x3dddf73b3f01bfb0U, 0xbcef5f3bbe400e9aU, 0xbbd453363e805d8cU,
    0x3d8b66e5be81ff9cU, 0xbd293f87bdb66525U, 0xbe0cc1d7be0ac267U, 0x3f0106bfbe33e18aU, 0x3ca929b53e1f73c1U,
    0xbec05afcbd73c252U, 0x3eaca8c53db2dc3dU, 0xbe1112ebbe2e7190U, 0xbde9f710bd90d5e9U, 0xbc20d22bbd62b5b5U,
    0x3eff60813c57bd4eU, 0x3d92fad13e9b0f84U, 0x3e8283443e2118abU, 0x3e20f7343d17c21aU, 0x3e6bb99d3d252c92U,
    0x3dcfaedabdaa59f4U, 0xbe7d82753de3256aU, 0xbe8c6ef0bdeaf7a1U, 0x3d248627be5a90bdU, 0xbe214e3bbe777e28U,
    0xbe3fb8c33d9cab5fU, 0x3dd2f87dbdc7f9efU, 0xbd9423fbbe06f69aU, 0xbdc5e2db3d025c32U, 0x3d693050bc149e7dU,
    0xbe14cf6c3ab29154U, 0xbd518230be03dda0U, 0xbcd03e34be128c2eU, 0xbdb2e3143c7733aaU, 0x3ca2baa0bd4676e8U,
    0xbca82c50bd816078U, 0xbaf2aa6fbbe0be56U, 0x3e92af77be0ac49bU, 0x3e75c6063efe81bcU, 0x3e2348663e2f6a59U,
    0x3d60420c3e133314U, 0xbeddfda5be1860a9U, 0x3e0ea484be541d7cU, 0x3d132fad3dfea382U, 0xbe4fdfa33e75d542U,
    0xbe3d7ba83e6c8d41U, 0xbe8e5d9d3ea89ff8U, 0x3da966763eba0e49U, 0x3db2bd96be547feeU, 0x3df1ab19bdfae045U,
    0x3df60af1bd4bdf48U, 0x3dedc4d03c389ffeU, 0xbf02fcda3d7367bbU, 0xbed7210c3f0d2f0aU, 0xbc434c153ed210b5U,
    0xbe2216493e8d4a15U, 0xbe3e70e63ec7ab08U, 0x3bbc28543f331d15U, 0xbb16449abc362bf5U, 0xbad8289c398bf246U,
    0x3a343e06bb0eeb2fU, 0xbc375491baee52caU, 0x3d6511153bfbc8bcU, 0x3dab4e5c3e2ab9c9U, 0x3d59231e3dd8582fU,
    0x3e02766a3d43a0d0U, 0x3e0fe3bf3e105ab7U, 0x3e26aff53e65baf7U, 0xbd7a1b113b371f2dU, 0x3dd9695d3e121118U,
    0xbd1e21ed3e95d84bU, 0xbe8d37d53b9d8548U, 0x3de5b8f1bcd26009U, 0xbd44945e3e9aefaeU, 0xbea461d13d632bb8U,
    0xbd434254bd192232U, 0xbdd409373e62af52U, 0xbe300b1abc88a7d9U, 0x3e23986ebd96b034U, 0xbe1953c03dc1b249U,
    0xbda1444dbd21c48eU, 0x3e6b36d5bec02b43U, 0xbef0298c3cb5a5a1U, 0xbf09acf03eb7c380U, 0x3eab0fcfbcfef7f4U,
    0x3e0983abbea1ace7U, 0xbdd610b93db057fcU, 0xbe38a7183db6a37bU, 0xbef4579b3dc8650cU, 0x3eafc496be18e6a4U,
    0xbd2a0fc33f41fb73U, 0x3f289ea23dd197f2U, 0x3d65edc3be9a0522U, 0xbf1e91cd3f0345b7U, 0x3ecbd47b3e24becaU,
    0x3d57c9afbf75c49aU, 0xbfb44a903e945013U, 0x3d01eb1e3d852446U, 0xbcbce3113e47ca9fU, 0x3e88353d3b88cb65U,
    0x3b8586b0bd343e41U, 0xbd6e94833e239ae6U, 0x3e0b2c033a613b90U, 0x3c1af3a3bd6d6c20U, 0xbd1a19f63ddf3a10U,
    0x3fbdd1de3ec58109U, 0x3f9914eabe4a6829U, 0x3f18b442beaafe3aU, 0xbe94b065be34fd8bU, 0xbf827683bee24b1cU,
    0x3e52d94ebddf3c34U, 0x3eef01513df26d83U, 0x3eca511b3ea0762aU, 0x3cb844e03ecca6dbU, 0x3e7630cb3ef4f53fU,
    0xbf571085bd86db1cU, 0xbf2c9afdbb986d78U, 0xbeed96933e0df813U, 0xbe0923623e58f6a0U, 0x3e223cfb3ebeba1dU,
    0xbf07baa5beb695efU, 0xbe28b68ebe9ecfcdU, 0x3f503f68bef5fee1U, 0x3fb72c99bf022639U, 0x4023fec1bdf9b16aU,
    0x3bead0153b9d8facU, 0x3c0ad69d3b964db5U, 0x3bf69b26bac9f8e7U, 0x3ba4f6373a65988cU, 0xbb23f4f13a3b64fbU,
    0xbde7a895bda49fadU, 0xbdadac283d657666U, 0x3aa4a625bb8c9fe4U, 0xbcded8f73d26942eU, 0xbdc423223ba0fa12U,
    0xbdb3fb303e2e540fU, 0x3f244418be8250a6U, 0xbd51c09e3d90ddcdU, 0xbdaf71c33e1e2f9fU, 0x3e6f20c3bddc7891U,
    0xbd52724e3ebd1661U, 0x3cbe3f2e3dc4b694U, 0x3c186b15bdc78c10U, 0xbdf020d83f0f24e6U, 0x3d43ceedbdb401a0U,
    0xbe1a2ef0bdc0e6d5U, 0xbe2751a83e882894U, 0xbc08f11abd257699U, 0xbe350fb1bdd44b9fU, 0xbd31f6823e3d833aU,
    0x3e9fd148bcc1fe1bU, 0x3f14e5dc3d926b45U, 0x3ea97ddebdb662a9U, 0x3d2bb3493da2b938U, 0x3e44c17b3f11fa40U,
    0x3eee331c3e6b9846U, 0xbf2172033f668159U, 0xbf2872d03ed016bcU, 0xbd54611e3eae8c91U, 0x3f0d5ff2bf2b7fceU,
    0xbf26ad8b3d12a385U, 0x3d62221c3f375533U, 0x3f5cea7cbf0ccc16U, 0xbed74e82bcd4a1a8U, 0x3b6e28cc3f58495eU,
    0xbe691d0f3d1868bfU, 0xbbabac5a3ddc35f5U, 0x3cac7c96be3c63b5U, 0xbe036893bab07d4fU, 0xbda3f2d2ba6e8bbfU,
    0x3e075654bdc3c87eU, 0xbd106aa53a67c743U, 0xbf2abff73e052f8eU, 0xbe0bac343d07d0b3U, 0xbc804999bec7252eU,
    0x3e266cdebedd9c9fU, 0x3e039d9abdffe2b8U, 0x3ef5a1123e4903abU, 0x3ec8bd5e3e7111c8U, 0x3e1dbdff3e04124dU,
    0x3edd02aebe082840U, 0xbf3cde9bbe48f428U, 0x3d94b24a3f15cca7U, 0x3da893b6be781bceU, 0x3cfa6c0cbe5cca0eU,
    0x3e0f9312bdfea2d1U, 0x3ded94aebd87ae31U, 0xbfb8af0dbd7a4d6aU, 0xbf4d11433f77b6deU, 0xbf34a1783f00fed2U,
    0xbeb3bd5c3e2e1451U, 0xbf3795c33e82365aU, 0x3bea886b3e480e17U, 0x3bd91224bbed022fU, 0x3bd49bcdbb988506U,
    0x3bdcbacdbbbd2280U, 0x3b83d864bb5c1efaU, 0xbe2c39a63bfdaf58U, 0xbe222a6c3d836a41U, 0xbd961b04bc63c273U,
    0xbe4eb89a3c93ca4aU, 0x3db9d6783d389462U, 0x3e3a3ac43cdbd17fU, 0xbd580e8f3b873e40U, 0xbe81663a3e717be4U,
    0x3dd10409bd617835U, 0xbe1f69173d786988U, 0xbea548a83e35a3e1U, 0x3d8c131bbcd5f2eeU, 0xbda58fc7bd72e579U,
    0xbe9fd8b43e8d553cU, 0xbba585dcbe54f3cdU, 0xbdf2b7873e9fe8d3U, 0xbe2a200d3e9a5f04U, 0x3cf57602be94b2a8U,
    0xbe50d0b7be819116U, 0xbe93c72d3e0526e7U, 0x3e5568d4bd8443a9U, 0x3d77b3b53e1e2da0U, 0xbd591378bed0433aU,
    0x3d2c2ecfbd315dceU, 0x3f0682a3bdbae82fU, 0x3ce5698f3e04b596U, 0x3e5175863f0705a3U, 0xbf273dccbf3e0f05U,
    0x3e488e00be605df9U, 0xbe3572313ddd8d24U, 0x3dae57173ea09e92U, 0x3f014b42bdadfd28U, 0xbd0c3f053be87f65U,
    0x3db5882a3f2d01cfU, 0x3f10c0be3c3957baU, 0xbd261a81bc9be562U, 0xbdfa2316bd4082d3U, 0xbdc9c1833cce4328U,
    0x3d07c080bd15db98U, 0xbdfd01c1be03349cU, 0xbdf63984bd2ecef2U, 0x3ccf2664bc1942a1U, 0xbbc99276bdd113f0U,
    0x3e9904023e1e6f80U, 0x3e8d40c3bcb9a90fU, 0x3e36c6d6bd83b35bU, 0x3ea615653dbbff9dU, 0x3dcd5d96beb8af8cU,
    0xbe21e0fd3e156476U, 0xbe4a6c7a3e3ddafaU, 0xbe38b3853f76b67bU, 0xbe9f5c7d3f0c36b4U, 0xbda7491abff9bfc9U,
    0x3d17bc2fbc5782fbU, 0x3cf20a64bd46c458U, 0x3d773e29bd1ebc54U, 0x3d87d5fb3d001095U, 0xbc8bea87bdb1b0d6U,
    0xbea04a003e36f9b6U, 0xbf2515363dbaf8fdU, 0xbebc9c9e3bfec249U, 0x3e47182fbf05235cU, 0x3f4afd4abfcd000aU,
    0xbb8fa1533f02dc17U, 0xbae0510e3c8b4d2bU, 0x3a8475fabb5070aaU, 0x3ac2fe15bc92bb71U, 0x3bc398e0bf0424f0U,
    0x3dd299da3d825a6aU, 0x3c1dac9e3de9cc31U, 0x3a008520bdf59357U, 0xbd8ec2eb3d6b6c23U, 0x3c778cdb3f5e8e95U,
    0xbdb6cac53d66e7c7U, 0xbd81e048bd9434f9U, 0xbb3c71ab3dc1dd6fU, 0xbe5e27a139dd2951U, 0xbdf7a491bc9b96deU,
    0x3dfa0cbabbd50e56U, 0xbeb98a9a3ec7526aU, 0xbdfa10523e846d89U, 0x3e73a108bd8cc584U, 0xbe3111b53e6eb14aU,
    0x3e172d183e5ce5fdU, 0x3a9e59e43d8b7ce6U, 0x3eb69668bf1c47d5U, 0x3dc6365ebd3149b4U, 0xbe3d6757bda3b369U,
    0xbe6c26bebf2bbb3fU, 0xbd8e8871be717f83U, 0xbd7d2109be523fa5U, 0xbe0b3fe33e225656U, 0x3ea545da3e15f483U,
    0x3dcd9fcb3e190f9aU, 0x3f1a46a93e62597cU, 0x3beef0ca3f388ad3U, 0xbd5564b53f017a58U, 0x3ebd6a2fbe1471ecU,
    0xbe5a56debc68e45fU, 0xbe024d353df3751eU, 0xbe5b37bebe8848b4U, 0xbea61805bd4b9fc2U, 0xbd85a1cbbf309f6bU,
    0xbdc4b6e63ce1994cU, 0xbc39e4f63d83a600U, 0x3bfc2e37bc4c1df9U, 0x3d20ec18bbc37a5cU, 0xbc7886ff3c9f91d1U,
    0x3d5ed42fbd51fe3eU, 0xbbdd78a93b9f820bU, 0x3ea5e4f73c034562U, 0x3c8235ff407e1b7bU, 0xbe9e60e03f6ca77eU,
    0xbf5489e7bf303352U, 0xbf224a9ac00af3edU, 0x3ed00cfdc05e1fcdU, 0x3e7588bebf6b3fa6U, 0xbe2a2643bf29b206U,
    0x3e93526ebed90963U, 0x3dca4422bed8eba2U, 0xbf432069be116db5U, 0xbf4213ed3e8b64f5U, 0xbf38957f3e34f356U,
    0xbf2ef6893d7cd520U, 0xbf1b0b783df33ea6U, 0x3f2c78f9bb9dc33dU, 0x3f5cba8abf8b7fcbU, 0x3f43ceeabf6ffe7eU,
    0x3fa6563cbf255eb8U, 0x3ffe7c84bed08e47U, 0xbb92d971bef471dcU, 0xbb88008e3bad90c9U, 0x3b0da64a3af36e0bU,
    0x3b8950fc3af996ecU, 0x3bd6743c3b0e6144U, 0xbd04f0acbba2086eU, 0x3ca657c4bc8c599aU, 0x3d662363bd34ed37U,
    0xbd9c1492bcf88b20U, 0x3d0149663d51ad28U, 0xbed7621b3c4fe0beU, 0xbe10aebabe23c761U, 0x3dbf5b8bbe1ee2d7U,
    0xbea9c6903dff7cc9U, 0xbc10b4d2be0056f3U, 0x3d16c553bd407865U, 0xbda2147a3db1150cU, 0x3d10d67d3c1d8436U,
    0x3d6d7ab63d2b534bU, 0x3e12bf7bba209153U, 0x3e69a8403e3264baU, 0x3e32f4a63da9aca7U, 0x3ec2cbeabda92b59U,
    0x3db707973c9206abU, 0x3dd2eb54bc968adeU, 0xbf841f89bdc2244bU, 0x3f3e78d1be4872d7U, 0x3e3301b5bfbd6886U,
    0x40daec91bf1fbb06U, 0xbf60fec2bee55954U, 0x3dbb98923f31666dU, 0xc0f781d03f198e10U, 0x3f1259a93eb1c262U,
    0xbe4f1c733d840451U, 0x3d3363cd3cbebf5eU, 0xbd04fdd13ed17e12U, 0x3eafacacbdf50f13U, 0xbe250419bd96469fU,
    0x3d9d66abbea25749U, 0x3fc7a86abe8cc23dU, 0xbb505b60bcf29f7bU, 0xbe4d86dd3daec138U, 0xbc48c4943c84821eU,
    0xbc42afb5be1b54beU, 0xbe21551bbd772c8fU, 0xbd352f6b3c530c1aU, 0xbbed64eabe0e682cU, 0xbe2e95d4bd99c38dU,
    0x3e80a3d03d91547aU, 0xbed1d886bd794442U, 0xbf264454be896b0eU, 0x3f5d96013ee18711U, 0xbf74b7ddbedec2dcU,
    0xbde1cfa83e239a9bU, 0x3c197cc2be44795dU, 0x3ebe42d4bd5eb44eU, 0xbe981ead3d49c698U, 0xbf3103ff3e233ce0U,
    0x3cfa6939bd6381eaU, 0x3d7c5da13c9fc009U, 0x3e445de03d4df4b7U, 0x3dc2c430bd8316beU, 0x3e753293bb113519U,
    0x3d2954d4bf072b4aU, 0x3df9c14c3f513432U, 0xbef4288dbf243b60U, 0x3f154f79beb919eeU, 0x3fd7ed923ee03002U,
    0xbb86cf433c817222U, 0x3b998ef13b3ee33cU, 0xbaf0b3453b9e5e3aU, 0xbc1be5653b07b614U, 0xb9993551ba0a4536U,
    0x3d5fd4933bed4fa3U, 0x3c8faf3cbd40b1bcU, 0x3e05a794bcb290dfU, 0xbdcc25ef3d876822U, 0xbd0cc515bc8cc6b2U,
    0xbdff44cdbdd1d462U, 0xbdf8577abe39d363U, 0xbe1066333db075e9U, 0x3c91ccf93de266a8U, 0xbd859e873d25268aU,
    0x3b1a7885bc87d8b4U, 0x3e31d6f8bda76845U, 0xbe81d6ddbda8a813U, 0xbd177c9f3b5542f9U, 0x3cfe2e183e0f004cU,
    0x3d4d314b3dcf33caU, 0xbe3c3b0d3cdbd6f9U, 0x3eb72ebf3d5de6b0U, 0x3e5559d23bc370c6U, 0xbe0471dcbf1eba3eU,
    0xbed2fe583ec9ce4cU, 0x3caf77163f673c2aU, 0xbe2bb006befe2e32U, 0x3e8e8c7bbe85c808U, 0xbef95213bf76701fU,
    0xbe392ae53e941fedU, 0xbe97ab4abe82d2c3U, 0xbef4a5cb3f82aed2U, 0x3d1c5f63bf71300eU, 0xbf635f1dbedfc687U,
    0xbea0d0fc3e2665a4U, 0x3cfd1ac1bf1c818dU, 0xbe8c7a09bd848efcU, 0x3d2cdca33ccbcdafU, 0x3e1dcf21bcab6de6U,
    0x3df6bc103cfb8621U, 0xbcaed47ebccc06a9U, 0xbcae3b983da6448eU, 0x3cb353313b975fd4U, 0x3cd31707bd5c49d8U,
    0xbdb0c7d7bd4f0073U, 0x3b8e096fba9d69feU, 0xbe43b194bd8a1db6U, 0xbf2b818a3f81b490U, 0xbf56975a3f86640aU,
    0xbf12437c3f39b4abU, 0x3ee31534be260ea1U, 0xbf1f9aabbd07a3c3U, 0xbee3616ebed757d2U, 0x3e31794f3c7c252fU,
    0x3f741af33e89badaU, 0x3edae262bf02c48aU, 0x3ed54c63ba9031daU, 0x3ed08c66bd8cae99U, 0x3ef4e760be074820U,
    0x3ef16d22bd857158U, 0x3ecdc27fbd780d8cU, 0xbdec5e48bddca3daU, 0x3fc5f748bfbc9954U, 0x40071c30bfcdc937U,
    0xbfb1b3efbf1420ddU, 0xbf95ccae3fe86c6bU, 0x3bf864d83f75af58U, 0x3ae6142abc514d4bU, 0x3bf1e0ffba664451U,
    0x3c0741dbbb86311bU, 0xbc34511d3b872a36U, 0x3d79cf143c2afc79U, 0xbc2e385bbdfd533dU, 0xbddc89fcbbbf79a5U,
    0xbd3eda6ebe22cbfeU, 0x3d693ed03de3e921U, 0x3e47042dbd196daeU, 0xbe2482a0be9497e8U, 0x3cab2ac6be78d927U,
    0x3e95201dbda6ee90U, 0xbd8c0a5fbead364cU, 0x3f170734bfa910e1U, 0x3e8a60d63f42d536U, 0xbb512b20be7fec70U,
    0x3ee6fbe9bf9271ddU, 0xbdb7070d3f78dcbaU, 0x3eac92bfbe442d69U, 0xbed0e1213f03c258U, 0xbe496322be3d837eU,
    0x3e9166883cb15ca5U, 0xbef2e3ab3efac4e0U, 0xbf0bd662bc646258U, 0x3dcef302bf02fb60U, 0x3c53cd203e87cf91U,
    0x3f0a9e0bbe716d25U, 0xbe7f86b23e521434U, 0x3f862d253f88ea3dU, 0xbfc3d372be0786bdU, 0x3f5d7c2bbf54e025U,
    0x3d9760a73e00cbe8U, 0x3d5c7a963e0bf204U, 0xbc2f6dac3d2839d4U, 0x3dc3abb93da79347U, 0x3e3bb7b53dad1db2U,
    0x3dd08e753cefe8f5U, 0x3e4e764b3e793049U, 0x3c1bda5f3cdf76e3U, 0x3cc90f86bd9f9e73U, 0x3d2119c2bcd0130bU,
    0x3b189e5f3d5761afU, 0x3d7b82533c826cdfU, 0x3cfe0b893d0bb8b2U, 0xbb9657113d36e9edU, 0x3d5d51d0bd43402aU,
    0x3e96690a3e26be93U, 0x3ec3f9d2bd902576U, 0x3dd37172be2abfa0U, 0xbe429bdf3d288931U, 0xbf0a4e353ef3417aU,
    0x3ed2edf1bf1bf87eU, 0x3e40e401bf02cd2eU, 0x3e54e908bd8b0666U, 0x3c7666893f15d005U, 0xbed0acea3fd79cb6U,
    0x3e058de0be19bc97U, 0x3e156867bd338e4eU, 0x3e271e6fbe198cfeU, 0x3d78615dbe21a3f5U, 0x3e0f1c09be8bbd46U,
    0xbf1dd5ca3f3df56eU, 0xbf2be6e43e5be898U, 0xbf9b15fc3da3303bU, 0x3e918885bf637557U, 0x4067ad52c0abba1eU,
    0x3bc8804a3bbfc23fU, 0xbb4706c7bbc9754bU, 0xbb8e9649b98e3b3cU, 0x3a44d8073aef8273U, 0xbc2954e4bc4103ceU,
    0xbe940f373e046460U, 0xbdbf20d6bd2af380U, 0xbe216325bd8f3072U, 0x3e40e8fdbdda52b9U, 0x3eb75ab53b3390abU,
    0x3e2ff151bddb4e10U, 0xbf23fabebe7797e9U, 0x3e3bc9ba3cc1e9bfU, 0x3dceb8073e8c86e1U, 0xbf30a771bdf625d7U,
    0x3f052522bcf4be3dU, 0xbe1abe713e17571eU, 0xbf03708abca0ff6dU, 0x3f1407f4be57fe2fU, 0x3dd8a980be22dfd3U,
    0x3f0537dabdfb8641U, 0x3e5f476abe944ad0U, 0xbea31948bf204488U, 0x4007a8383e996a13U, 0xbfb420283eb3bde6U,
    0x3c8ed6d93dec2d6cU, 0xbd15ed783ccb29f4U, 0xbda5f0a6bc9e9fc2U, 0xbdf09cea3e890762U, 0x3e1b7652be436810U,
    0xbf1ff504bcb2c8f5U, 0xbee74fac3fa6cdaaU, 0xbd212f01bf7f41e8U, 0xbe2a09b53f0a7126U, 0x3f06a107bd922894U,
    0xbe1a9f64be4d323cU, 0xbe15ffb73efd19c2U, 0x3eb1fad4be1df756U, 0xbe2c9d1ebe26b4bdU, 0xbe20eda73dc40f7dU,
    0xbe15095abd4c4b6cU, 0x3c2542de3d3fbcbbU, 0x3de15c0ebe1aa2b9U, 0xbe4fca44bb8280f2U, 0x3c51d2ed3e177234U,
    0x3db30423be3e1f6aU, 0xbdee0bf2bad84726U, 0x3f6ba4c23c8afb62U, 0x3ede1e6fbec87543U, 0x3e97f74fbf03a039U,
    0xbce36d43bedc4fa2U, 0xbf57f56cbef75164U, 0x3eae6dd0bf2cfbc2U, 0x3ec1a2f2bc75f522U, 0x3eb57e60be202a44U,
    0x3d215bcfbea9bcfeU, 0xbeb4121ebea15df8U, 0xbcced944be3ba5ebU, 0x3bf2c30abe18ac77U, 0xbd643e5fbdbc2a01U,
    0xbd8fdb14bd3bcfc4U, 0xbd7bdfa5bd49634fU, 0xbd822afcbdb13b27U, 0xbd3eee923b82f2a6U, 0xbf3eb6813e024a2fU,
    0xbe7f88293d460d18U, 0xbfb45067bdac5570U, 0x3c20ea363eea1456U, 0x3b5015fc3c907fc2U, 0xba6807913802989bU,
    0xba9205503b1a4392U, 0xbb7620bc3aaa0794U, 0x3e18aa2ebc28f02eU, 0x3d14dcab3d6e3903U, 0x3d33674f3d4835a4U,
    0xbb320b233dec6c17U, 0x3db424e63c01a2b4U, 0xbde4144d3d988676U, 0x3db5d870bdab268eU, 0xbd9b313a3d2f82e0U,
    0xbd32158f3ea368f2U, 0xbda079323cdc4d7dU, 0xbdda2eb43df23ee7U, 0xb99d12813e511045U, 0xbd9f8f213d114440U,
    0xbe85ce413e408df5U, 0x3dc1a5d93e0a8354U, 0xbdbc7778bdbbfdd2U, 0xbe860cce3dfb91d5U, 0xbcb3708a3def2e3aU,
    0xbe854b35be9d3aa4U, 0xbe109e353e720a3aU, 0xbbb0c544be44a0ddU, 0x3dd42ed73dd0a725U, 0x3df1e121be0b43deU,
    0xbe6a0470bca12525U, 0xbe72045eba0f3445U, 0x3dae695cbf8af0c4U, 0xbf7cfa89bf1ed713U, 0xbf1e46233be59c79U,
    0x3e13ef303bcd9500U, 0x3cb91f21bde94a82U, 0xbd7edc0a3d8ead6eU, 0xbc92c8153c56dd73U, 0xbbcc7398bdb0f249U,
    0xbde2e78dbd25e182U, 0xbdad341ebd419eccU, 0xbbf948f1bdeef566U, 0x3cddbab33dc4bab9U, 0x3c70def6bb4690a3U,
    0xbc658bebbc056403U, 0x3d9c1632bca65f59U, 0xbcdba8a53bb625edU, 0x39fa54b9bc8cb7eaU, 0x3cf640c43c598824U,
    0xbf04c063bdcc06dcU, 0x3efd6652bdc0394aU, 0x3f8c3679be4835c1U, 0x3f8a573abdff4636U, 0xbf90773bbf65d2e8U,
    0xbe81a9c93e248ea0U, 0xbe63b82abc3357c9U, 0xbe90bc9cbd3f7eeeU, 0xbe7b5417be0475deU, 0xbd25ce46bd2daf47U,
    0x3db282b0be286658U, 0x3d42cf5cbe222002U, 0x3c1fea22be1ff7ffU, 0x3bfb6168be10040cU, 0xbd1beb0fbe16ae23U,
    0xbe529bf23baa95c2U, 0xbe0dbbb93e1e0c09U, 0xbe5b1a5b3d2f9a9eU, 0xbea05fc23d568786U, 0xbf0d97bb3d518a8eU,
    0x3b13e1b739ab77d9U, 0x3acc0511ba99db81U, 0x3b6e23cbb87e9125U, 0x390f8fc73b0dad0cU, 0xba972d8cbaba68cdU,
    0xbc133e0dbd56b7fdU, 0xbc7b94d3bd36989cU, 0xbba7c412bd6b2c60U, 0xbcaef97b3cde0932U, 0xbcffc325bc6b948eU,
    0x3dcb4f3cba7d87b5U, 0xbba84e7ebd0131ffU, 0xbbb62dae3b76d17fU, 0x3c85b69f3d701634U, 0xbd836391bd0a848dU,
    0xbca3f175bc5b8f50U, 0xbc9c12203db570caU, 0xbd4b601fbda4c9e3U, 0xbc982f2f3ddca50eU, 0xbd0613d9bd3fedddU,
    0xbda808383c65cdd1U, 0x3d196af43e8ce99bU, 0xbe598b6a3d8a8713U, 0xbddc43dfbd44f1abU, 0x3d5fcc203e4c415aU,
    0xbf622a233f60fd6cU, 0xbf2be5ab3ea097b1U, 0x3f7f4db73f52425dU, 0x3faabb26bf9ae513U, 0x3e54030e3e87a327U,
    0xbf1bc201be2073f0U, 0xbf96e0983eb115e1U, 0xbf05d8a3bf594a0cU, 0x3dee917e3f46221cU, 0x3f628367beb57f19U,
    0xbde1b8c83e25dbbcU, 0x3dcd48ec3f8b7b28U, 0x3f975033bdf54b63U, 0xbebd8ead3d070e69U, 0x3dd0353c3fa61bc6U,
    0xbf0bea8e3bc6217dU, 0x398dcba9bda988c5U, 0xbe11139ebda4fac4U, 0x3d8abeabb9c1cc5eU, 0x3c299468bd6d2781U,
    0xbd5add353d756a76U, 0x3df4a668387e8b89U, 0x3e1ae23cbd73e656U, 0x3f5555eabf3cc416U, 0x3f0d0416bf043c5cU,
    0xbeabad563e55aa7bU, 0xbf6445783ea70e19U, 0x3fb5d9243e06f233U, 0x3f82e2cbbf74cf6fU, 0xbf837a22bebc7e8fU,
    0xbff53bfc3e8c78d3U, 0x3b7265bb3ebac12eU, 0x3d7ebc96be517271U, 0xbc61fbc33e86d664U, 0xbd62c53a3e840f14U,
    0x3ceac8fc3e336920U, 0x3d6701ff3dc88e91U, 0xbf3d43e83e1ab43aU, 0x3e91850b3e955083U, 0x3fb5c9b8be24586cU,
    0x3f582d78bf195cf4U, 0xbee29e84bf2f46b9U, 0xbbb40f52be95f443U, 0x3a67f3e0bb8770feU, 0x3bbbaf4b3b0a589cU,
    0x3bdacf833bda91a1U, 0x3b690d193bb51fe8U, 0xbe7759d83bd7b298U, 0xbbb1aa2f3d600b8eU, 0x3e9c73333aac8ba6U,
    0x3e825bf23e0df062U, 0xbe64d5833d1cde49U, 0xbf85314f3d1dbf4dU, 0xbf3896edbe78f16bU, 0x3e0f82cc3f055552U,
    0xbf0f9f393f1d1de9U, 0xbf475cd5bdbf39d6U, 0xbebcf0d33f0df371U, 0x3f3d2d46be6c65e7U, 0x3ed9f18fbd8bb493U,
    0xbf19370bbe6029f9U, 0x3f633607bf5ea6bfU, 0x3f72b098bbc39214U, 0xbe99702fbf39c30bU, 0xbe17752dbedb9ac9U,
    0xbdb9dff83dc1a591U, 0xbe8ba155be9388b2U, 0x3b2883bf3ec50151U, 0x3cf817eb3e920139U, 0x3e911158bd66e9c1U,
    0x3e10e7833dc90d28U, 0x3dcfc0e83e780081U, 0xbe416362be17431eU, 0x3d3515cdbe3a3bd6U, 0x3dd66e8d3f0102b8U,
    0x3e204c013e680effU, 0x3e5057f1bd760910U, 0xbc33bfdf3dbb1f65U, 0x3c99eb2a3e82006eU, 0x3ea3fb56bd5c56d5U,
    0xbb9ac2923cea0737U, 0x3bb9215f3e9f37c7U, 0xbd059908bc2652faU, 0xbd17cc90bcc52791U, 0x3d8037e23c404b9aU,
    0xbc6e22ad3d54d4e8U, 0xbdbaac6e3cd09058U, 0x3e15b51c3d3a90cdU, 0xbc85c6b0bd9038a1U, 0x3d2018c43e085f23U,
    0xbf086ef53f1478ceU, 0xbec069233ead413eU, 0xbeb2f1013e720027U, 0xbe9ad95d3e6a31e7U, 0xbed0e333bd3a439aU,
    0x3b906f5c3eb80523U, 0xbd4cc7d73e596991U, 0xbee3a8993e6fe9c8U, 0xbe68ed08be9c5e8aU, 0xbf2cd2be3f227185U,
    0x3d1fe8173d9c231fU, 0x3cfc32f03d6388e0U, 0x3cd930863e0626b3U, 0x3dba7c473d02242dU, 0x3d50bc433dd05febU,
    0xbdb4c68a3e995818U, 0x3d452063bec05000U, 0xbd082e1bbe562150U, 0xbe0e12fabf115802U, 0xbef262683eb39681U,
    0xbc73c8413e88fbbcU, 0xbb3eb09b3bd25297U, 0x3b1a2905ba5bfe7bU, 0xba8e4346bbf264b1U, 0x3be986d0be89875fU,
    0x3d50c9c23d209f30U, 0x3dc562a73e374702U, 0x3d495df33d691232U, 0x3de7c3e23e5909eaU, 0x3d8d48a0beb736c8U,
    0x3c9b84fb3e4686c6U, 0xbe22063d3b838acaU, 0x3cf6cc02bde8f81eU, 0x3d17598f3e2d683fU, 0xbe642d1e3e060f61U,
    0x3c77de9bbd702384U, 0x3e9170e53dd933d7U, 0xbdaf6795bda5ea23U, 0x3cb02760be02c01bU, 0x3d78c82abc4b8924U,
    0xbe4f41dc3e39d744U, 0xbd676230bd504776U, 0xbcb71d5a3d2f65daU, 0xbe244f55be6a4e2aU, 0x3d885fcfbddededeU,
    0x3f522cb1be2c4cbdU, 0x3df48824bda4ac8dU, 0x3d0ee1423ec41b55U, 0x3ed71163bef30655U, 0x3edff8443ea45e37U,
    0x3c8408ddbe01e00cU, 0xbec3516abc9ca74cU, 0x3f4035633e469cbaU, 0xbe9312c4beea4875U, 0xbead39ed3f3a3a0bU,
    0x3f457df3be885bdeU, 0xbebd4e01be874cc4U, 0xbdc5ec253f64a2a2U, 0x3f81453cbec57cf0U, 0xbec1c820bc584a16U,
    0x3b00c57c3c15d3efU, 0x3d0807053eb9ba32U, 0x3eba3e783d477af6U, 0x3dc23e35bc3d2e4bU, 0x3c88452e3e6a1dddU,
    0x3ead94783dac0067U, 0xbcd405bc3b48863bU, 0xbea3d6323e730155U, 0xbd86d85abf4356d1U, 0x3f0c35b3bf2ad8bbU,
    0x3f900c4abd6bd877U, 0x3fb8db783ea5bfceU, 0x3f645a8f3f87f6b6U, 0x3fc22c87be5f9190U, 0x3e559b82bf5f62e6U,
    0x3f0cbc28bf3b0e78U, 0xbd6b34f0bf431fb7U, 0xbf48984dbedf187fU, 0xbf5561943def31b4U, 0xbf6db89f3d3aa5b4U,
    0xbf7c14c0bd088b54U, 0xbf8c54a8be3150cfU, 0x3e82ae33be65402fU, 0xbfe04ee4bf3b00a5U, 0xbf4881603f270a70U,
    0xc00128dabd7994e2U, 0xbf1514ff3eba3025U, 0x3a95bce6bf0e1e5dU, 0xbb8db0cb3bb67980U, 0xba9d5a053b6028caU,
    0x399644dc3b0ea4cfU, 0xbac9a66fb6c8dcfeU, 0xbdb4190dbb87b55bU, 0xbdd28fb9be21c5e1U, 0xbde4e9f13ed0b5baU,
    0xbd01ca733c846821U, 0x3c76cc473ef3fa3bU, 0x3c9ec5ff3e5c9cdfU, 0x3e79ef993c3a428bU, 0xbe8ab9593f3beeb0U,
    0xbec2e4fa3ebdc480U, 0x3e23270a3d12163cU, 0xbea61cf43f98468dU, 0xbe5c40fabf15244bU, 0xbe47e8183e02658aU,
    0xbdb47bcc3f4a2116U, 0xbeb0777bbdd2e528U, 0xbd323804be9b59ceU, 0xbdeee4c13f6838faU, 0xbe61a095bf0dd2acU,
    0xbddab6603e649201U, 0x3e1619483bd79dcfU, 0x3eb5a436bd9ca7aaU, 0xbe5cc7b33e8ab3b2U, 0x3ce3320cbcc9888eU,
    0xbd8121febd772428U, 0x3e151a81be30d8aeU, 0x3db9f248bf662707U, 0xbf2836d4bdd38520U, 0xbd2f54e5bd837ceaU,
    0xbea677a9be4f3d09U, 0xbe695317bddb3d4cU, 0xbe12010d3dd3d97cU, 0x3f0d1e18be8d41ddU, 0xbe9f0619bddb6c21U,
    0xbdc6b98c3f77a77dU, 0x3fc1b3d6bec3b497U, 0x3b3d25e9bda0f154U, 0x3d7e48ad3d95285eU, 0xbe1533ca3cd9ff6cU,
    0xbc8a286d3de6db95U, 0x3dd25054bdedbc00U, 0xbe39c38fbc10d29aU, 0xbb9814173d03368bU, 0x3d15c643bde5810fU,
    0xbf21d1d2beeaa137U, 0xbf0692dcbed1062cU, 0xbeb3974bbeb70d59U, 0x3d466325beef5671U, 0x3f598c75bf5a97bfU,
    0x3d31fb313dcbcdc1U, 0x3e7355ae3ec0970eU, 0x3ef9d7fe3f2d4e2bU, 0x3f55d26c3f2863b2U, 0x3f8d041a3ef9775cU,
    0xbe643b30be4a1ad9U, 0xbde4b545be4b23e6U, 0x3b811ccdbe2e8f70U, 0x3dc02ca7bde78a6dU, 0x3e366ba5bc95a341U,
    0x3f588bbe3e391626U, 0x3f34d3c43e39a917U, 0x3eeec4b93e8962c0U, 0x3e9750e43e7700f8U, 0xbde910403eae5845U,
    0xbb2e37b13c4fcd98U, 0xbb017baa3b31f1c3U, 0xbb3d23743ae44c94U, 0x3ad253203b009cfdU, 0xba24ff6ebc38bb76U,
    0xbd3491bebdbf82a5U, 0xbbac7b0ebcd4291fU, 0x399b218dbd9bfd82U, 0x3dc61d9f3d9c7ea7U, 0x3d9d66f73ddbb1d9U,
    0x3d2ee3d43cadcc2eU, 0x3e325a64bd8b0bd6U, 0xbd6f396c3d11bbd9U, 0xbd18b8dbbd8d48beU, 0x3d46d0893c95d254U,
    0x3dcdd136bdd14941U, 0xbdad2c973df18730U, 0xbdfc88493d708e2cU, 0x3dc8a7f13dc60e02U, 0xbd1766ed3e3ae18eU,
    0xbe569ec23e3ceab4U, 0x3e3166c2bd97c598U, 0xbb80453e3e30d1f3U, 0xbe274efd3d08e503U, 0x3d4cc3c7be04d13cU,
    0xbcfe3f8b3e11139eU, 0xbd22810abea170c3U, 0xbe740daf3d5a3eedU, 0xbdc991de3de72efdU, 0x3e4e02f9bdceac51U,
    0x3e7e4b66bf39025fU, 0xbebcb79a3ef98ad7U, 0x3f569c953f1e46f8U, 0xbd9a8bb1be9c71c3U, 0xbdd99aee3f3ccf8bU,
    0x3f149641bdd2d67aU, 0xbd318fef3e40473dU, 0x3ed886513f07b376U, 0x3edf54553d5d9372U, 0x3d5434b13f19b572U,
    0x3cce53633c43d9dbU, 0xbca21faabe16db27U, 0xbcfc58febda36856U, 0xbdd6a608bc7805beU, 0x3d60ef51bddef9e9U,
    0xbd8c3285be4fd21eU, 0xbe8512573c2cf015U, 0xbe31a272be079d54U, 0xbda276773e2de452U, 0xbc2288323e80e810U,
    0xbc9b1ec23ee2fb5aU, 0x3db1845f3ecfdceeU, 0xbea5f0773f0ac6a2U, 0xbece26af3db7db3bU, 0xbea9b5533e7e33e9U,
    0xbf3ccf9c3e8c165aU, 0xbdce5d133e6ce4aaU, 0x3e0b874dbe773386U, 0x3db0870eb9745fa2U, 0x3d51ba6abc0aae42U,
    0xbc2d3946bc95e246U, 0xbc3214a5bae7cb3dU, 0xbec2752c3bb87d26U, 0xbe454031bf0b3b9dU, 0xbdb8d6e4bebe19f2U,
    0xbf4b2a3abf25f1b3U, 0xbfb8d109bf1a0cf5U, 0x3c51cd3cbf0615e3U, 0xbb4b58ff3bb3f11eU, 0xb9bd15ee3b5b67a6U,
    0xba0940ebbaa268dcU, 0xbc8b03fc3aec654bU, 0x3d1edffe3b0c3f29U, 0x3db0b7e13cabff8eU, 0x3cfe39933cda049eU,
    0x3dc6e29b3d1ff31bU, 0xbd38fd0b3b52f58bU, 0x3e24d183bcbdfb0fU, 0xbde08111be0f4a30U, 0xbe097cf23c2b9a6bU,
    0x3e35622d3d51cb4cU, 0xbe9b889abe7cec19U, 0xbe7290223d5ee1c9U, 0x3dddb7913e891a3cU, 0xbe98c897be518638U,
    0xbe306404bdee65beU, 0xbd341fd63f0ffaf7U, 0xbe5e6aabbe2a5b6aU, 0xbd84d70dbe0e72adU, 0xbc794baf3ee96d3fU,
    0xbeb0bff6bd9ec323U, 0xbe0e93c53e43018cU, 0xbdcffcb43ec8bd66U, 0x3be1b55dbf242d40U, 0xbf1c273f3e5c5b1dU,
    0x3ef9ca7bbe20e1b0U, 0x3e3d2fb03db08ce8U, 0xbee49300bf860c98U, 0x3dedd8bfbee768e1U, 0xbe095fc9be8ec44fU,
    0x3ddebe23bf191e07U, 0xbf46b1be3daf45ceU, 0x3dfdae133e4133e3U, 0x3e6be4c9bf5593a8U, 0xbf50be4d3e41f7a8U,
    0x3e23b63c3e7d4760U, 0x3ed9ec11bf87665cU, 0x3c3816793e616cccU, 0xbe02d3fd3ddd125eU, 0x3d99cf24bc2730b6U,
    0xbd120f60be36e546U, 0xbe06196a3d520cccU, 0x3ce2a175bb1f147fU, 0xbc79d9a8bcfb1562U, 0xbe16ea693dd25473U,
    0xbf2294343f877454U, 0xbe878a163f5cdbe6U, 0x3e32e5bd3f74b4ceU, 0x3f908abcbee239baU, 0x3f43a06fbfbbc7d0U,
    0x3d9c31cabe9f6fd1U, 0xbe56df893eb47511U, 0xbe6834573f80fe21U, 0x3f2ff7a0c02d18aeU, 0x3eb93b773f5921f4U,
    0x3def135b3e787d24U, 0x3d8003d73e560d10U, 0x3da61a1b3e6fde17U, 0x3d99a8043e1e83daU, 0x3d1c0ae03e2aadb9U,
    0xbe52352dbe8f1af1U, 0xbf284024be969a75U, 0x3ceeea8ebebc2d01U, 0xbe983fedbf4fd266U, 0xbed393573f0fd3a3U,
    0x3aaac60abbdb00c9U, 0xba8d08ee3baa4fb8U, 0xba499289bbff556dU, 0x3afda073bbb85df8U, 0xba96a61e3bb2b8dfU,
    0x3cd8612b3d09a8deU, 0xbd1a1d98be8ac240U, 0xbd50fb32be6ce86dU, 0xbe29b9174000d1ddU, 0xbd44a995be8860e0U,
    0x3d0cda66be70c138U, 0xbeb7ec5a3e5e2a01U, 0x3dec44e9bd26b788U, 0x3ca808e13e1673c5U, 0xbdec516f3ea41075U,
    0x3c4ea81fbe066028U, 0xbe95098d3ea995caU, 0x3e8a83453ee9d2acU, 0xbe68a51abe3eb597U, 0xbe8bddbebf933321U,
    0xbe7d733a3f39615dU, 0xbec76f6cbdbc48b4U, 0xbcb014823e394787U, 0xbd51d0e6ba7e44c9U, 0x3ea0ed15be383588U,
    0xbe0bcbf53e21232eU, 0x3ada5b1f3cac2120U, 0x3da4dcbdbde0eb9dU, 0xbe30e2abbddf8b8cU, 0xbe97b78f3b84df4aU,
    0xbd1f00acbea34163U, 0xbe2a2d64bf01efa0U, 0xbf2d5e6abd7036e6U, 0xbcc4cab2bf26a407U, 0xbf05bf96bf2afaedU,
    0xbf291ca0bda166beU, 0xba3abd2dbed6ecf0U, 0xbe994d3ebf265db4U, 0xbf284c75bcda8581U, 0xbd49b796be200b10U,
    0xbda7883a3cdcb10dU, 0x3ad81135bd1cfe01U, 0xbc232ffb3dae49d8U, 0x3c0bd2d2bb8c133aU, 0xbc1640423cc1f601U,
    0x3d92abb1bd7f1560U, 0xbc30307f3acbbe3bU, 0xbc85e4f5bcad3a89U, 0xbe6e7bcdbf4adabaU, 0xbe93fb25bf0398deU,
    0xbe1710cdbdd6242fU, 0x3e7983aa3f062b11U, 0xbea8926d3fbdeeefU, 0xbe8c88c3be3a46f3U, 0xbe7fe984bdea7661U,
    0xbe0c8f16bddef649U, 0x3e3f17d9be08b9dfU, 0xbd8ee34ebe133ef4U, 0xbcf2eadb3dc6c432U, 0xbd4e0b583d0c8254U,
    0xbd7a2778bcdd330fU, 0xbddf6defbdb1428eU, 0x3de2a515be4b8e53U, 0xbe87d27dbdd92eefU, 0x3d8c9714bed80367U,
    0xbe6377cabf463a52U, 0xbf0048e6bf718fe6U, 0xbb8cc171bfa4e370U, 0xb70abb87bb4d8c52U, 0xb9e81e8eb9f8b128U,
    0xba37cca2ba11d356U, 0x3b925ab83a1ea382U, 0xbd4ca1b23c037525U, 0x3c90d824bd570278U, 0x3b86e095bd0e34a1U,
    0x3c778205bd823411U, 0xbd98f6cabcb5acebU, 0x3db01d7abc6500ccU, 0x3d02c112be1c7573U, 0x3d90d754bdf17c34U,
    0x3decd9a73d8fc3aeU, 0x3dd77146be59adfeU, 0xbca04d28bcb8c331U, 0x3d75aee0bdb20069U, 0x3e1acc77be868c66U,
    0xbc9ea614bd93cfcfU, 0x3d3cc9f7bd343d0cU, 0x3dddbaf3bee3bfe0U, 0xbcc98491bd5e3eafU, 0x3dc91e82bd805e19U,
    0x3d8ad20cbe91a10aU, 0xbd132323bd86a225U, 0xbe409dc93d5025fdU, 0x3dac1d9f3e3be13dU, 0x3e99b8f3be93deeaU,
    0xbe381d163e07a86eU, 0x3d867c493e73612eU, 0x3f052e623f22c484U, 0x3ed86d04be96fdadU, 0x3e139bf4be2b00b8U,
    0x3e7d6c5c3f247c61U, 0x3f0cb30d3d9c26fdU, 0x3e23131d3ed5204aU, 0x3f1125bd3f02d88dU, 0x3eea117c3e229fbdU,
    0x3e39060e3f19932cU, 0x3f0dc22b3efa272aU, 0xbd3be4d83db5023bU, 0xbd0a8081be3b861eU, 0xbdeb5c043cee0cadU,
    0x3cd1877bbe1ef819U, 0xbe262ed9bcd734a9U, 0xbe13dd2d3d1f7d23U, 0x3be1d67fbe0f7a49U, 0xbe0f1b2fbb8485c7U,
    0xbe3d84353e6ad09cU, 0xbe810eb83ed87b88U, 0xbe18b33b3ec770cfU, 0x3dcd9410bd882d44U, 0xbde3035bbf0b6880U,
    0x3e6d4f223e79903cU, 0x3eec4b493e3fd661U, 0x3e2547013ec2b511U, 0xbc526250bf3ff41fU, 0xbed477d83ea6f827U,
    0x3e02747fbe4d8928U, 0x3e77a19ebe4472d4U, 0x3e5e4740be1dd1a7U, 0x3e942e03be0da088U, 0x3e6f1acebdcd696aU,
    0x3edb504cbe80b752U, 0x3d79585dbea142baU, 0x3f1a71ecbf6e8aa8U, 0x3e9ec6ef402e7153U, 0xbea2ad74bfc2deceU,
    0x3f2cfb16bbb2cc79U, 0x3c7ecce73b8317acU, 0x3cc0cb3d3b680cd0U, 0xbcb30ee9ba84c4a1U, 0xbf3363953a89ac5fU,
    0x3ea4fb3e3da7b449U, 0x3eab40ea3da4704fU, 0x3ee629943dcba447U, 0xbf1b55fa3dc6bcc8U, 0x3ea9c1bf3b5b0d97U,
    0x3db54d253e66ebf3U, 0xbc7c46a4bd589329U, 0x3e8ecbef3d32c486U, 0x3e20c8b13d92e78cU, 0xbe349f14be137b8bU,
    0x3ec8edab3ea53de3U, 0x3d85b9c6bdab95edU, 0xbe1972efbe62e6b1U, 0x3e320b783e75d170U, 0x3cf9fe9cbccbc334U,
    0x3f474afbbe95e2daU, 0xbf77936bbf1f70cfU, 0xbdd921fbbe8b261aU, 0x3e188c08bd32a201U, 0xbc3a40973ec12a15U,
    0x3f9e9056bf0713b3U, 0xbf2bfb4fbfa9992cU, 0xbe0bfff83f34008bU, 0x3f5b4e353ea66381U, 0x3f79b41c3e59a04cU,
    0x3f59fdfe3eb62ec8U, 0x3f08d3103e9e55acU, 0xbf1a9e053fa42a56U, 0x3d6d998d3e9f7420U, 0x3edf8788bf177376U,
    0xbf09ca163d728378U, 0xbc222c7e3ecd0d68U, 0x3ea3d815befba244U, 0xbf12b5823d3f3bd0U, 0x3e2082a33e7023e5U,
    0xbdeb99afbda38cffU, 0x3c3ce366bce21cabU, 0xbe1bd6c8bdc68325U, 0xbd9cc96e3d469565U, 0xbb366857bbd25075U,
    0xbc4af87ebcb3fc8fU, 0x3cdf95433ca2cbceU, 0xbf702e49bd846f72U, 0xbf258e763f64cbbeU, 0xbe92d54c3efcc5b5U,
    0x3e897b463e7928fbU, 0x3f800c333d96f1e7U, 0x3f0c0467be8ba5a2U, 0x3e593e5fbee30aefU, 0xbe9836a63d800458U,
    0x3e8d3ad33edbe292U, 0x3f3102563ebbc566U, 0xbd7671d03ed1d2d7U, 0xbe0dc3263e84ca0aU, 0xbe52548c3e85b9e6U,
    0xbe7060df3e91c4e5U, 0xbe9aad5a3e8db986U, 0xbf8046183e18eebaU, 0x3d2c82593e409b96U, 0x3ef2b2913f15ce5cU,
    0x3e8fe73d3f9064fbU, 0x3fa436eb3f7abedcU, 0x3beee93e3dd3fce0U, 0xbac0809e3c9278e0U, 0xbad72696bb168409U,
    0x3bd5e636bbb4c40eU, 0xbb79a920bad9cab8U, 0x3d18e327bcb72f5cU, 0xbbbab9643e5a2a79U, 0x3d846b5abdff6765U,
    0x3ccdc67ebd6671a1U, 0xbdd0e43ebd3d72c2U, 0x3f06855ebe173b13U, 0xbdc16dfabe7a4a7bU, 0x3e256e833f36ce8cU,
    0x3d194029be0d71faU, 0xbecd01ba3c134506U, 0x3d06bace3e2689c3U, 0x3df481823da82204U, 0xbe377e90bc611bcbU,
    0xbc1956653de4062cU, 0xbd158d463d28a185U, 0xbdeb07b3be8b400cU, 0x3d4362a73e5410b1U, 0x3d5bd7c9be7d948eU,
    0x3d1152eebec67ea9U, 0x3e09bde4be197692U, 0x3f63cd41bde38fa0U, 0xbef48312bf34296dU, 0xbdbfbabc3e2e5989U,
    0x3e35fd65bea80b92U, 0xbe8cfed7be3f5019U, 0xbe08c4e83ea24b95U, 0xbe4109efbe89e5e9U, 0xbf3943c83f23fd1eU,
    0x3e576f2c3f7ecda5U, 0x3f4ce21b3e2795d2U, 0x3e20a920be04115cU, 0xbe4504b73f4e1590U, 0x3f3f659d3e25cb60U,
    0x3e656cddbec89b3fU, 0xbf4498273f3d7dddU, 0x3ed2b4eb3e37204aU, 0xbe44ecea3f0f2194U, 0x3ec210d13ed35531U,
    0x3e500808bdf53433U, 0xbe1ad4eb3de283fcU, 0x3a9d9be53dcddfd0U, 0x3d2f0beebe501017U, 0xbe0403293d8ed5acU,
    0xbdaa49cbbeace965U, 0x3e1734f2be41faf7U, 0xbb9a619cbca627e3U, 0xbea70cf8bee94643U, 0x3e8e2bbabeab4d0eU,
    0x3f0c9277bbe51f86U, 0x3edc84e0bf2c9de1U, 0x3e8586fabf981a74U, 0x3e76d3c3bfb175ceU, 0x3db87c45bf12aee7U,
    0x3d70a5b8be29dee8U, 0x3cecc79abd986000U, 0x3d914eddbde2b606U, 0x3c5b95c3bdcb0bbeU, 0xbd3c7eccbdd7f325U,
    0x3f7ad027bf0b74a6U, 0x3f88f638bf0e82d0U, 0x3ef4594cbf6e6cceU, 0x3f074615bf318b98U, 0xbec7db643df11776U,
    0x3baaa366bc6b5118U, 0xba4c87b6bbe7eb81U, 0xbb9f7d8e3bed70c4U, 0x3a40a9083aa2b81bU, 0xbc29a3923a615962U,
    0x3e1bf28dbd7c097fU, 0x3e2725a53df99e97U, 0x3e59c3783e733abbU, 0x3e995ff33e8a9bf7U, 0x3e8870b83d734da7U,
    0x3e568b333e03193aU, 0xba3693103bcab1d1U, 0xbf09cd163f315985U, 0x3eb3a3cc3ebdfb1fU, 0x3e9c15f6bd905cbfU,
    0xbe939dec3ef217e5U, 0x3e4764d63eaafdf0U, 0x3e174acdbdc7fa1cU, 0xbe8608473e22e3e1U, 0x3dbf3ee73e1e8cc5U,
    0xbdd5ab5fbe7f66c8U, 0xbe4283433e2b9968U, 0x3e42ba2d3d58c676U, 0xbd880c7ebeb38048U, 0xbdf7840e3ddc79abU,
    0x3ca68de54004b8baU, 0x3ed181f9be2362d8U, 0x3e1d6f65bb9e0440U, 0xbe4050f9c0b2335eU, 0x3fb2d6b6be5de1edU,
    0xbeacbc6e3de44e5eU, 0x3f45bf023fc44739U, 0x3d4b059c3e694121U, 0x3ce0d268bd955ffeU, 0xbe80fcc63dc72e88U,
    0x3e0a22013d3360d4U, 0x3dca7c673eefc74fU, 0x3f5064163e0962b1U, 0x3e674a653c43fb18U, 0x3d9a9c183dd750f3U,
    0xbd5fdbcc3c9a8585U, 0xbb487c09bdd91c5aU, 0xbe02ac753d115d54U, 0xbc4dbe793bd8f9a5U, 0x3c659da9bdc7a6a3U,
    0xbd2474f83b9acd36U, 0x3c6856d0bcb0c069U, 0xbe7f049ebd8d2604U, 0x3d86824e3f2b17f7U, 0xbf18a0d93f50adc7U,
    0xbf0e3fafbc043f60U, 0x3fae7ab5bec84d0fU, 0xbe7e02bcbf46f80aU, 0x3ed35db43ed0c836U, 0xbf0dfb53be4e0d90U,
    0xbefe6d6ebe03272aU, 0x3e809fe73f7401d2U, 0x3da9c68b3f522134U, 0x3d89f4a5bd3aeadcU, 0x3dfa7fe0bb7983d9U,
    0x3e347a413d30d935U, 0x3e45dbed3e26368aU, 0x3e461e0f3dcbe4ffU, 0x3e59abb63ee444e6U, 0xbefe981c3ce8d17aU,
    0x3ef54ad0be2eb698U, 0x3f339f24be220931U, 0x3ca70c69beb89850U, 0x3bb827653bcef853U, 0x3b5b36e238ba5859U,
    0xbb2b9a843c2c5e75U, 0xbcb8daad3b924c97U, 0xbbd8587fbb41d7a5U, 0x3c66acfe3da00d71U, 0x3ed276ab3b3ddd83U,
    0xbe07d8f13cd40544U, 0xbea39d12bd4d53a7U, 0xbd0bcbcdbdf33620U, 0xbaaec8efbe3a12f8U, 0xbc4f57a2bec45cedU,
    0xbdd8c1013ccb9b17U, 0xbdb9782dbe5b896bU, 0xbe16c6c53da67a0aU, 0xbed1671bbe01db8bU, 0xbe5180e0bdba805eU,
    0x3e658b22be61f6caU, 0xbcdc92b4bd3347b7U, 0xbde059253f134b24U, 0xbe9005febe86911aU, 0x3f204aa53da97266U,
    0x3cb263d83d815977U, 0x3de94e073e927a42U, 0x3e0e0c79be1b9668U, 0x3f032f473c542675U, 0x3c84e9c13dca711eU,
    0xbeb2d6913f1b3be0U, 0xbe0fe12ebf40af07U, 0x3ea9e66fbdd32350U, 0xbe4a0cc33eed1943U, 0xbf3e8a7f3ea969e0U,
    0x3eef948c3f1cc950U, 0x3f494e8c3e84aa32U, 0x3e6b33293ecb2adcU, 0x3ebb41ff3f42b37cU, 0x3f4c44f23e503c03U,
    0x3e600cee3eed0823U, 0x3f05691c3f5cbd91U, 0xbd4f8a923e51f919U, 0xbe822b05bd9e3eecU, 0x3c9ea7f13c8b599aU,
    0x3b56f7debe80ad64U, 0xbe842789bd13f9d7U, 0x3c1741423c767e21U, 0x3c05fbe7be9345c7U, 0xbebd62943cf6c6d0U,
    0x3f6f38553f2fe8f8U, 0x3f4ca16b3f02128dU, 0x3ec41ab23edcab56U, 0xbe022ec73eeed0b1U, 0xbee76cb83e569fceU,
    0xbf42c31c3f218b3eU, 0xbe8ce001bb090f14U, 0xbe77c231bf09e2eaU, 0xbfa9752f3f2b835aU, 0x3f1e2362bed80415U,
    0x3e9216453ea412b3U, 0x3e8a3f4b3e93a9a9U, 0x3e2388b23e8d17d0U, 0x3d43b5013e423498U, 0x3d0caf833e6c7711U,
    0x3ea31722bd61ea98U, 0x3eb9b130bef1b69dU, 0x3ed37348bf0cadcaU, 0x3f0c7764be722650U, 0xbd66f0d43f70f83dU,
    0x3ac70943bbbf518bU, 0x3c127e6e3aa0ad11U, 0x3b2750ed390150abU, 0x3b5d9d4c3ad18003U, 0x3c3616083c294119U,
    0xbd240e51be8a8531U, 0xbcbde18f3e38dc27U, 0xbca5c2f53d579398U, 0xbd8b326abea9e3b1U, 0xbd8eb8d93db95e11U,
    0x3e464bafbd34fba7U, 0x3dea243dbe61c90bU, 0x3ebd804ebe57f6b0U, 0x3e702a603c8605edU, 0x3d2172a83e1f2a2eU,
    0x3c30932f3d32f10fU, 0x3e8c63ea3b931c5eU, 0xbd98972f3e9be95bU, 0x3d87c848be85bd00U, 0x3e7c3ce6beb5da56U,
    0x3f150ac1bf84fa95U, 0x3e8e9579bf1aa2fcU, 0x3e588fad3e42b963U, 0x3d1a2b263e47fdfbU, 0xbea10e98bcb94561U,
    0x3ef7ee7c3f0f6447U, 0x3d9f7fc4bf826ad9U, 0xbf2ab7623dd92e24U, 0x3c38772a3e5ca1b5U, 0xbcd07eb8bf191c8bU,
    0xbf0323d93e9c4211U, 0x3f43d734be4c532bU, 0x3f8e71033dd67057U, 0x3ec426b83ea56931U, 0x3f15b57d3f84a538U,
    0x3f82845e3ebe051dU, 0x3ecc30633f4848f1U, 0x3f7df95d3f8188b8U, 0x3f7889d73ead00dcU, 0x3eca412d3f9f4d3eU,
    0x3e9862fb3d0456e5U, 0xbc8d6480be827b3bU, 0xbe9a36da3e2482bfU, 0x3e19d6763cb314fdU, 0x3d167321be94580fU,
    0xbecb11783e349587U, 0x3e6ad4df3cc58a78U, 0x3faa6cdbbe9042dcU, 0x3f4d03b9bfdcd77bU, 0x3e7fd7b5be9f0da3U,
    0x3d95d3c33eb759fbU, 0xbf4abc303eb627a1U, 0x3e734405bf3a10cbU, 0x3f318eda3ecf19f0U, 0x3f35ad26bca59d07U,
    0x3e31a0d63c3183f7U, 0x3f01b6093e616460U, 0xbd1e7555bf716715U, 0x3d0da6b5bed60494U, 0x3e803745be9e6685U,
    0x3e9dbab1be85b095U, 0x3ef92c14be56c5f1U, 0x3fc9a034bb005ad2U, 0x3fef14cc3e9da370U, 0x3fcceec6bf277caeU,
    0x3ff3974cbfba01cdU, 0x3fc1564fc0176774U, 0xbca48867bf61900bU, 0xbbe2cb613c54897aU, 0xbc5df4933a48bbbfU,
    0xbbc082733b66d647U, 0x3c6f2b903bae4fabU, 0xbebd7fc1bb2f77d9U, 0xbeb5099fbe876f47U, 0xbe94f4e5bebba5f7U,
    0xbe045bbebee65640U, 0xbeeb3bdbbf228c07U, 0xbd854bf9bee0b5caU, 0xbe38edee3ea5deb2U, 0x3e0de9083e60721bU,
    0xbe6f646ebe08fdebU, 0xbd448c2f3f109983U, 0x3ec9b3d93e5a79d2U, 0xbd4aa97cbe4e2241U, 0x3de57d733e991435U,
    0x3ed5473dbd5d3e39U, 0x3ea32631bd986237U, 0x3e3797543e0ff4d7U, 0x3ee1c4b1be920adeU, 0x3edfaeb33e80c0ebU,
    0xbe35e05b3edd09b6U, 0x3eae9e8bbeabdd76U, 0xbec15bed3e5bef7eU, 0xbf9a1abcbf188304U, 0xbf3d6294bdcff61dU,
    0xc00c8e50bf8487e2U, 0xbf047cd9bfde1dcfU, 0xbf82b4ebbeea7562U, 0x3f1e6c653f83f50fU, 0x3fc3be1d3f82bc54U,
    0x3f1653ffbf5f26bcU, 0xbf3831de3d548161U, 0x3daf29aa3f63eae3U, 0x3f9e867abf31eb88U, 0xbf46f42abb9458d9U,
    0x3d6d724e3fcaf69fU, 0x3fca3c92bf1c16d7U, 0x3dab0d223d16750bU, 0x3da54bb33e3fefb5U, 0xbdf1875cbcabb5e8U,
    0xbc4078de3d91f5fcU, 0x3dbf2d88be44ee32U, 0xbe5607a2bcc800a8U, 0xbccd4c4c3e08fb56U, 0x3ded823abe2f2370U,
    0x3f9ffdfebdabb15bU, 0xbee4176b3e1e76cfU, 0xbff530a33c94f1b4U, 0xc002a7213ed572eaU, 0xbf17427c3f6d32c1U,
    0xbed34084bfaa124fU, 0xbf166d36bfb70eabU, 0xbf5826d2bf3b79cdU, 0xbeaa1c6d3fc5f902U, 0x3f0795aa400806c7U,
    0xbe8112bb3f044828U, 0xbe44d0b03ebf6094U, 0xbe1f3e3c3ecc9204U, 0xbde99ff73eae12a6U, 0x3ce467143e83dbb1U,
    0xbd90b7f1bfcf98b8U, 0xbef0fad5bfc60ddaU, 0xbec03de2c01c42c1U, 0x3f0019b6bfa0a2b9U, 0x3f4a110b3fef9dedU,
    0xbacd63bcbc6adc15U, 0x3be67e58bb509d39U, 0x3a7e0b6fbab1ab6fU, 0x3c03cecfba9306d6U, 0x3ca78f613b9e921cU,
    0xbc6282c93d3576aaU, 0x3d865ff63e6e097fU, 0x3e3da111bcc59c7aU, 0x3e648a75be18d178U, 0x3d9cc6debe719839U,
    0xbecd935e3e4f0fedU, 0xbdac9eddbe63f78cU, 0xbe9ca0a6be42a099U, 0xbe4caed43d487319U, 0xbe37a83b3d9eda76U,
    0xbe142363beb99db3U, 0xbeecd752bed4f871U, 0xbe23da503dd45801U, 0x3afb7afebf1dad68U, 0x3eeab0a9bfa5b2f3U,
    0x3e955533bf6db81bU, 0xbc13c06dbe1ff7c8U, 0x3ec094fbbee58a11U, 0x3e2609cfbef84b6aU, 0xbf18911f3dd41ca8U,
    0x3f4911ffbd960ff3U, 0xbdbaf4fdbca66af8U, 0x3e2924f53e6b4c86U, 0xbc58878ebdbf848eU, 0x3e9020d23d29b96bU,
    0x3bfa295cbd9b1e33U, 0xbf7acd6bbeb6c756U, 0xbfd5862dbea5d959U, 0x3eaea6333f5a08d1U, 0x3f2c2cdbbfc400a0U,
    0xbfbad6803e9d524cU, 0x3e9f8b263efad357U, 0x3e946700bfbfd0afU, 0xbfbe81d63eb39565U, 0x3e929ba03d69f64dU,
    0x3e129bf8bee46c0eU, 0xbf086a05bf079d3aU, 0xbee3a5f33e0f7aa8U, 0x3dd34654bee86947U, 0xbea32ba1bf0e7747U,
    0xbf04b61c3e080c25U, 0x3c2746edbe8184ccU, 0xbea38121bed84a63U, 0xbdd799f03f680c9bU, 0x3e2c31a23f3da05cU,
    0x3e19949b3f1f2853U, 0xbe118da23ee7816fU, 0x3c79dfb23e279b80U, 0xbed46de2bf71b137U, 0xbe85080abf3116c9U,
    0x3d6ce768bee34373U, 0xbebc3236bf376eb9U, 0x3e949535be938be1U, 0x3e2722b13da3bf4eU, 0x3e5e88d9bc219533U,
    0x3e4b5b0b3e0af685U, 0x3e856e843e23e5a7U, 0xbe9d7f3c3e06fc0dU, 0x3dbf4638bfb289eeU, 0xbd516a1abf986964U,
    0x3e06c190bf1fb260U, 0xbed7feffbf936095U, 0xbb8b8657be5aecd6U, 0xbc49b4e33bfc00d6U, 0xbbdae2a33bd42f80U,
    0xbaef73283ba37876U, 0x3c1359803b7773c6U, 0xbe9354373aa67168U, 0xbe4fb36bbe70cc64U, 0xbe974aebbead0711U,
    0xbe67a5d5beb534e0U, 0xbe0ab906bf2ae27aU, 0xbe031d4bbed4c8e9U, 0xbee54af23b9338d6U, 0xbdf3dc53bf054f22U,
    0xbf37a43e3f1d4ae2U, 0xbe3591cfbe89d19eU, 0xbe5ed63cbf487579U, 0xbf0492633ec6568aU, 0x3d981392bec40929U,
    0xbef2f79cbf3c89c5U, 0xbeb9b3513eb990c8U, 0xbd36f13ebf18ea34U, 0xbee81a42be68dc85U, 0x3e8909573e1e3829U,
    0x3e92307ebe0268c4U, 0xbee1dbe23dbd8b56U, 0x3d859aacbe9e38dcU, 0xbea8deeb3eccfb42U, 0x3ed6ef383df4b66dU,
    0xbea3d6b1be9ef55eU, 0xbec8df933ad702c4U, 0x3e1482223eb89d7dU, 0x3ce6493bbc4e0eabU, 0x3f07d1e83e8268d5U,
    0x3ef842e9bf0dca1bU, 0xbf1211a6bdabb7edU, 0xbd9a27ed3ee0e927U, 0x3ecfb8c9bf17cb62U, 0xbf1df7ccbe001584U,
    0xbe212bb13edb3fc0U, 0x3ed27c7bbf347d8dU, 0xbc7fb234be2a66ecU, 0x3e43975cbd5c94d2U, 0xbdc10c033c011ae4U,
    0xbcff3a703e657a39U, 0x3e113ce5bdc73213U, 0xbdd8121b3cc3d7aeU, 0xbcb1f6b53e1dc852U, 0x3e711a24bd61e95bU,
    0x3f024b813f0d09d5U, 0x3f083cccbde0fe65U, 0x3f0662d5beecb4abU, 0x3ece0064bf247a8cU, 0x3f2169a4bfa3b615U,
    0xb900ff833f27d245U, 0x3cab5ebf3f06068aU, 0x3e7c10463ed6cca0U, 0x3ec048383e9fcbd0U, 0x3ee9e98c3e5a231fU,
    0xbe70e6e1be727bb6U, 0xbe65546cbe42ee75U, 0xbe2d341cbdf4d81dU, 0xbe082729bdca0000U, 0xbdc42407be185ee6U,
    0x3ef294b13efe90d0U, 0x3f08b24f3f14f803U, 0x3f95850dbda2fbb0U, 0x3fa4b1bdbe6a760fU, 0x3f4b4c4b3e6c39f8U,
    0x3b7eac3b3bcdd3e1U, 0xba86413dbae25b0dU, 0x3c04759bba36de75U, 0x3c01a6533a0a94d6U, 0xbaa4cd8ebc13dbf9U,
    0xbe519f1c3ca19b1bU, 0xbe886c24bc9aab00U, 0xbdb244aabbc48d16U, 0xbdd74cf1bcf8e03bU, 0xbe2efcf83e0f7d46U,
    0xbea5854f3cfd1bc7U, 0xbc7cb4293d3a66a9U, 0xbe80e9f4be711e36U, 0xbe3bf7393e8070c9U, 0x3d743435be23f63cU,
    0xbe0d54a3be244127U, 0xbe6e22973eaa1b51U, 0xbd19cb8fbd91f646U, 0x3d30aaf03e0182e4U, 0xbe43c47a3eca1f8bU,
    0x3db77068be1a3854U, 0x3e074c933d46d613U, 0xbd4dde433e0b04d6U, 0x3e23c358bcca794eU, 0x3d59418b3e12c69fU,
    0x3c5db937bf377286U, 0xbecd6badbea66d88U, 0xbe8965763e96d1a9U, 0x3fb977b23e581a93U, 0xbf37a960be626ad7U,
    0xbef1c6e73f0b0dbfU, 0x3eebddb9bda5c780U, 0x3f302527bf0e7563U, 0x3d8ab9003f81dc7aU, 0x3f96d52f3f229e13U,
    0x3f1ed8e23e3018ceU, 0x3e56ec743f66de1aU, 0x3f08e66d3f0ec269U, 0x3ee5b2673e580b2bU, 0x3e33c2123ec1ceddU,
    0x3f22d282bd3b17fdU, 0x3cdefb05be0199e7U, 0xbe00712d3eb7326aU, 0x3e0fecc03ca83edfU, 0xbbac49c6bdbf5298U,
    0xbe1ab4653da8ba47U, 0x3c010a5abb64db26U, 0xbdc00b4abd93ba1fU, 0xbf0cf7f53f8c3751U, 0xbf4753ce3f60ad3eU,
    0x3d944ed23f9e39f2U, 0xbdb3757b3f9fa782U, 0xbf4594313f9b0996U, 0x3f88cf623e8bf348U, 0xbf3226f3bd53efe2U,
    0x400ba01f3f683db8U, 0xbeefbf5bbf142dcaU, 0xbd19ffcc3e37e66fU, 0xbb2b51df3e515d9dU, 0x3d15db8c3e973b63U,
    0xbcc6326b3e613c12U, 0xbd939efd3e41dbb7U, 0x3ea670fb3e10e540U, 0x3e97cff9bf071087U, 0x3fac5698bf14da8eU,
    0xbe74d1e6be6b830dU, 0xbe858157bf0f7409U, 0xba62a156bf8b37c4U, 0x3b1f7b6c3bf2a1e6U, 0x3b28cb9ebb10d84fU,
    0xbc474cc73b2d82ddU, 0xbcc416ceba2f2895U, 0x3eeacbbfbb7d1d6fU, 0xbb2f728dbd1cfa25U, 0x3ee120a7be0777b3U,
    0xbf8ece49be2b6affU, 0x3e4003423e532cbdU, 0xbe9dc0313bf4fa26U, 0xbe65c0f23d61db34U, 0x3ea131bdbdbb6ad5U,
    0xbe15460c3e9b03baU, 0xbddb74463e2d5889U, 0x3e6617053e57527aU, 0xbe80a5e43da9ba55U, 0xbc8046703ee6ae22U,
    0x3ea6089bbe9b2cc3U, 0x3f85a3313e96d516U, 0x3e3257c1bec648ddU, 0xbe6db36b3e44af78U, 0x3ec12fdd3c45d43eU,
    0x3e2e36cabed6d1a4U, 0xbda88fe3beb77e40U, 0x3e41a96b3e45ad97U, 0x3aed88d9bddea035U, 0xbdf1ccf43cf5be6aU,
    0x3d5cae953e221532U, 0x3e1f81abbc1ab325U, 0xbd2e8993be868319U, 0xbcbad8153e42ca3fU, 0xbe1b19563e8af3c9U,
    0xbe7d2d543efc6382U, 0x3f12998dbd89a669U, 0xbd908734be49f149U, 0xbe18b1753f2b5bc6U, 0x3f494186bd98a9c7U,
    0xbd63fef2bdb611acU, 0xbd97ef733f6eeef0U, 0xbca2f927bd380333U, 0x3deae56f3e11a528U, 0xbd8ee1b8bc8b6804U,
    0xbabfd927bca1bbd7U, 0x3c9d3916bdb7357fU, 0xbd4cdcc4ba43e650U, 0xbbf24df63db582c2U, 0x3da41b8bbd124f39U,
    0xbf0438b63d09cc04U, 0xbecca0e63c90658cU, 0x3d3db9d8bd8ac229U, 0x3ec83ecfbe9f7958U, 0x3f81460abf43ecffU,
    0xbe123a35bd42231bU, 0xbd243b26bd6f943aU, 0x3c309adebdd43669U, 0x399883b73c0ec3e9U, 0x3e9a8e3fbdb3d83fU,
    0xbdcf8a463d995591U, 0xbddcdd493da3ed76U, 0xbe0f7d0e3cf4549eU, 0xbde6ba6b3d03a2eaU, 0xbe5a3d0cbb6721deU,
    0x3f43373bbec53f9bU, 0x3ec046bebe8fa060U, 0x3e2584f9be27693aU, 0xbd2f9f24be62602cU, 0xbedb682c3eac3dc3U,
    0x3a9568213b3e9e27U, 0x3a5c89febaddbb92U, 0xba715410bab9637dU, 0x3a18a06fb9365dc9U, 0x3a1edb96bbc67686U,
    0x3db1b56ebca00269U, 0x3d30d2123d0a1f72U, 0x3d1a27003c7f3634U, 0x3d63e7023d30cbefU, 0x3d879f1a3c92d1fdU,
    0xbe0c58fc3b2e32b7U, 0xbd53b0e7bd3ee0ccU, 0x3db54f8cbd87aa13U, 0xbe4cf3a53b68df5eU, 0xbe008bbc3cac7bd6U,
    0x3d179802be10ac45U, 0xbe249a953c9b9d97U, 0xbda920b0bcdc8aacU, 0x3d5037b8be4e47edU, 0xbe3f6000be12d7adU,
    0xbd7a2fb7bd5319b4U, 0x3c72dbe0be10cfaaU, 0xbdd9dea4bdfea05dU, 0xbd3c8eebbc58f805U, 0xbd202167be21d301U,
    0xbc86cdf43ee40a89U, 0x3e9b22b63f8474a3U, 0x3f22490bbe25b993U, 0xbeab2be23fc6206aU, 0x3c048e1bbcb7f171U,
    0xbdb8cdd4bedde04aU, 0x3f08bfeabe342763U, 0x3ec21452beae2368U, 0xbd8459fbbf065397U, 0xbf3274a03eb50950U,
    0x3eaae5a7bdb7b443U, 0x39f85b98bf81109fU, 0xbf97216c3e96b5c3U, 0x3ebbcf003cdaa1f7U, 0xbda99720bf99b2feU,
    0xbe3fb3b0bc8fd5fbU, 0x3c7c0e6a3d0a2cc5U, 0x3dfdbbcbbdcb430aU, 0xbcfd80f83bde2657U, 0xbc0923983e08f1bfU,
    0x3c85327cbcf8423eU, 0x3d023c43bad277aeU, 0x3ecf92973e2ca319U, 0x3ef9796f3e1397b9U, 0x3eb9925d3e5527e9U,
    0xbe09e4913f0f0c0aU, 0xbf596ee5be56850bU, 0x3ef74711bf5c0cfeU, 0x3f2330133ebb7f76U, 0x3e0387d93e85fd56U,
    0xbda539ae3f283925U, 0xbdba6db33f415b47U, 0xbe1ea9633f8712bcU, 0xbe0b18b2be5bed88U, 0xbd9f86c7be465adfU,
    0x3be9ac51bd110936U, 0x3d84cd0f3d90eb37U, 0xbec1d0353e93d8edU, 0xbf836b3dbede12a5U, 0xbf176f4cbea4433aU,
    0x3ddc8975bf2bbe49U, 0x3fda241cbe07a5e2U, 0xba2211d23f94a6d0U, 0x3bd70c3cbc5425f3U, 0xba69130bbaf07d35U,
    0xbb9baee63b951a1fU, 0xbace258b3b82c7e3U, 0xbd5bc52d3c32d86eU, 0xbd3f5d553dab9047U, 0x3d8757b43d8980f4U,
    0xbd49ec713b97779aU, 0xbc4d127b3b1bd1fbU, 0x3c4dfda93d162d18U, 0x3c1a715bbea775fbU, 0xbea4abc33d506981U,
    0xbdba429e3df477e6U, 0x3cbba2d0bed7f460U, 0xbeb47d8d3ede664bU, 0xbe3e2e5fbe25003cU, 0x3dc8d16cbe596bf2U,
    0xbdcc481d3e838690U, 0x3dad87a13d743c2bU, 0xbd4d512cbf0e1cd0U, 0x3f0fe760be5c508cU, 0x3e343ec83e3ad9aeU,
    0xbd44c9b4be00f9dfU, 0x3f25928dbf23ecc5U, 0xbcd64a773e599375U, 0x3e933c41be64b0d3U, 0xbe18f0d5be0d3d76U,
    0x3d7306773df0f455U, 0x3d8d7361be03a8e2U, 0xbdc855553de89785U, 0x3e9e50e93c869ddcU, 0x3bfa55a73d7f0e07U,
    0xbdf7f2763ef31727U, 0x3eecc8b53e66e1edU, 0x3e8b1160bc575c4aU, 0x3de5ac283ee54c5aU, 0x3ee2581b3e5c6b40U,
    0x3e68ee1e3e4eee0bU, 0x3e9fabe13ed7fa88U, 0xbc02d6783e91083eU, 0xbd3687863ca97849U, 0xbc31acd53c07bcb3U,
    0xbc43df003c2f7ee2U, 0xbe1fbd86bd1a63b6U, 0x3c349607bbfef3ddU, 0xbbda4074bd7a2a89U, 0xbdc89086b46cd65dU,
    0xbf139416bdd93e36U, 0xbf7460d03e771d3aU, 0xbf4151663ebc2ee2U, 0xbc118e193eadbea6U, 0x40095f7fbe8ea232U,
    0xbe8b73b4bca12e3eU, 0xbe82c116be95bef7U, 0xbe8ff759be5d255dU, 0xbde9b665be014895U, 0x3eaaf396396bff78U,
    0xbe96457a3ebd12f8U, 0xbe7cf24b3eb65cabU, 0xbe20f53a3ea250b9U, 0xbe1160ca3eaffcefU, 0xbd0dd2cf3eb6a521U,
    0xbeea0d44bf0e7c32U, 0x3d95ab9cbecb19bcU, 0x3e5df897be80de9aU, 0x3f2c68debdc15270U, 0x3fb77074bda66291U,
    0xbb87d7fb3aefa15bU, 0xbb1748eb39956435U, 0xba576a88baa970aeU, 0xb982ade2ba7cb039U, 0x3b2ce4ccbb517bddU,
    0x3c4c318bbd0a09c1U, 0xbbb06145bd0843b8U, 0xbccfb980bd06a0baU, 0x3c0aa6a7bd28fe66U, 0xb82feef2bb701f06U,
    0xbdab99e1bbe04755U, 0x3c3dd8a13cbd469aU, 0x3d264f62bbfbfc59U, 0xbdc381bfbcd61cb4U, 0x3d05da743e289653U,
    0xbdd32936be1bde84U, 0xbd2be606bdb9173bU, 0xbd4f3fa73e242d2eU, 0xbde5f06abd6e30c3U, 0xbd018554bdf9aefdU,
    0xbe1d2aeb3e26f8dcU, 0xbe04b1dbbd003dd2U, 0x3c3a3611bd5c6fd4U, 0xbe0bd3623e42bfd1U, 0xbe4433393e168cbaU,
    0xbfa454bdbfec5563U, 0xbed6ac8a3fb716c2U, 0x3edfa075bf23f2d6U, 0xbf5b91383fa891b7U, 0xbefa4add3e94f1c7U,
    0x3edcb361bf19521bU, 0x3e76b6ecbee2dd0dU, 0xbf9a982fbe948103U, 0xbc1dc72fbea5600fU, 0xbf014bc7bf9dd020U,
    0xbfa72d423cf044c3U, 0x3d24bcd1bf670ec4U, 0xbf9a3ee1bfabcf9bU, 0xbfa6aee23c3c8d36U, 0x3c04c9bbbfa160d5U,
    0xbed61928be0e6c1eU, 0xbd4870e9bd922606U, 0xbd83b91bbe8d00e9U, 0xbe946179bc9ec028U, 0xbd8e403abe10ac01U,
    0xbdf0e21cbe870dc0U, 0xbe859fcfbc4381baU, 0xbf5adf31bc05ffd1U, 0xbeaf11eebe4a8222U, 0x3e1b478cbeb6944cU,
    0x3f8ff9babe74430dU, 0x403c7f93be396506U, 0x3eeb78d33ef87a61U, 0xbddce20bbede2401U, 0x3f3474f4be8f7f35U,
    0x3f8455e4be89eb63U, 0x3d887f82bed23a4fU, 0x3e185739bd8a62a7U, 0x3d5270ee3d6e04e7U, 0x3d58e7fc3d85ef72U,
    0x3dbc62593d923d33U, 0x3dd14a2f3e6776d3U, 0xc035e9a33e4b7d6aU, 0xbf8efafabf9cb94eU, 0xbff88f3dbfa16c4bU,
    0xbf0d0179bd95fbdbU, 0x403e5d3c3e0ec23eU, 0xbc26139cbf01a367U, 0xb9a46b2bbb6c2093U, 0x39d5cc73baa10823U,
    0xbbefe3203a2e4bdeU, 0x3a85f1e73b90d554U, 0xbe50a89abb634741U, 0xbd0ef6533ef68ad8U, 0xbdad371a3e53070eU,
    0xbcf539ef3f222947U, 0xbe31f2b9bd88064bU, 0xbd02e521bf3dbfedU, 0x3e33419cbdd2019dU, 0xbf19226a3e0a4b87U,
    0x3e84e8a63ed7036cU, 0x3ee388473e2ffdb6U, 0xbebb6f333e96eecdU, 0xbe911e1b3da1874bU, 0x3f106cd53e889243U,
    0xbe4fbde03d888dd0U, 0xbf698a2f3df21da1U, 0x3e4fab753e51d8f5U, 0xbf3ec2ef3ebbb355U, 0xbf0fa4213de64f33U,
    0xbe4386a33ea13a7eU, 0xbf2e5e913f08f0b5U, 0x3e42251ebe2c9b9dU, 0xbd4015e1be1483a5U, 0x3da60e943e1e1832U,
    0x3e422816be2c8c6cU, 0x3e2b2d583d547234U, 0x3e89b14ebd9dcadfU, 0xbdca009c3e1fc57fU, 0x3f255326bdcccdf3U,
    0x3f8ae06c3f3bd1c4U, 0x3f36a6c0be2fc013U, 0xbde56cf03fa9e1c2U, 0x3fad9c643f28ae4fU, 0x3f1498f2be80ed5bU,
    0xbe5fccbf3f9fc6f5U, 0x3fad910e3eef2889U, 0x3dc60b86be5a20eeU, 0x3d5de295bdb29890U, 0xbe5fb2963976da84U,
    0xbc5f2bac3de850d4U, 0x3d2a83a0be1657e0U, 0xbcc562973cdea04fU, 0xbb872d933de2262dU, 0x3c719494bd891c55U,
    0xbf0a29fa3f2e5576U, 0xbd54975f3d186a60U, 0x3e5c6524bd863e48U, 0x3f03b475bec86dc8U, 0x3f737bcabf1d36b0U,
    0x3c8bcad9bf1d8e6dU, 0x3da61ae93b9fc87aU, 0x3cd359963d92f59fU, 0x3dc282d7be001006U, 0xbdb42ea7bf02a684U,
    0xbe659b50bdd87da0U, 0xbe803cd0bda2abd0U, 0xbe8ce281bd7a9c8dU, 0xbe51b62bbc7c0b3eU, 0xbe9c3a683d7d04e2U,
    0xbe479894be8b6c39U, 0xbdf3906bbd66ad06U, 0xbef26b163e904627U, 0x3e2199583f398e58U, 0xbf4eba153f9407f4U,
    0xbbe07d2f3b585c1fU, 0xb964d66dbb307031U, 0x3a19564638fc9968U, 0x38b1b8f0babf419eU, 0x3c83228b3ba24b07U,
    0xbe0aea373cc5d5f8U, 0x3d32913abd054b1cU, 0xbd9a869dbde73877U, 0xbcc08a7fbc986195U, 0xbde6955cbd872398U,
    0x3d2414e93d9abe83U, 0x3cacc1f8bdf7085dU, 0xbd88f01c3deac2c5U, 0x3e8af70a3df4bceeU, 0x3dfb9fbbbdd9ac8dU,
    0xbdd6eb6d3e48e325U, 0x3e281339bd871cedU, 0xbd467f8ebe1a92e8U, 0xbe0be3153ed6e85bU, 0x3e5044d9be6d9d30U,
    0xbe5768193db28fe7U, 0xbe4109043ec58f21U, 0xbf63653e3dddd862U, 0xbeed4717beb9777fU, 0xbd9a965a3e88dce1U,
    0xbe5b5b20bdc63a75U, 0x3d7792153c48d266U, 0xbd8b3729be4e2c54U, 0xbe1784babd5adab6U, 0x3ca0d1c2be44a6e8U,
    0xbe1f5f7bbe3be2c7U, 0xbe0f66a8be00ab92U, 0xbe758c8c3cc1efd8U, 0x3df9d85dbdb5cf9cU, 0xbe263bedbe5e8ad6U,
    0xbe6714713d9c3617U, 0x3de8762ebe76ac4dU, 0xbea54358be813f2eU, 0xbe783af73d3b5d54U, 0xbc59b899be96413eU,
    0x3d341fca3d35a99dU, 0xbcc2e887bdd6480aU, 0xbe513cc73d15133fU, 0xbd655b703b5dd247U, 0xbbe9fae9be3d6b01U,
    0xbdae71f3bc1267b9U, 0x3c4a79fcbb1d6e76U, 0x3e84582fbe186ad1U, 0x3dfde399bf0518b6U, 0xbdd203e3be4ebba5U,
    0xbe6f6c5b3dc71ac4U, 0xbe0e92cd3e8e7be8U, 0xbdd1f8ba3ea48338U, 0xbe432676be1050a6U, 0xbebe6d98bdd7244fU,
    0xbe5129233d8f1a66U, 0x3e1c35103d845eb4U, 0xbcef760f3e34b816U, 0xbc2300e0bc9788adU, 0x38c499a1b9bda3ffU,
    0xbd2960f03c46de9fU, 0x3d28d7763c5feba8U, 0xbe7237353d754dfdU, 0xbdceb9643bb4780fU, 0xbcccb802bd4c6bceU,
    0x3dc4824e3d5368d7U, 0x3e75441fbd903661U, 0xbf962d1fbe284b6dU, 0xbbf892903997c418U, 0xbb09acf7b999ca98U,
    0x3bff30cc3a26a229U, 0x3f97c2323afeb865U, 0xbe7af31f3b229476U, 0xbeb97e9cbd3aa445U, 0xbe7779b2bd4e4e44U,
    0xbe8d1fd6bd61cd20U, 0xbe9012dfbd4c5328U, 0xbd522575bd638370U, 0xbcccea943c3a5fc2U, 0xbc0dd9cf3dbd9879U,
    0xbd84520cbd53131eU, 0x3d9765163c167363U, 0x3d11c1cc3e10c479U, 0xbe0afd4fbdd140dfU, 0x38edd23dbdcd46a2U,
    0x3cd388ff3daa02aeU, 0xbe0450e1bdb03718U, 0xbd9161fdbda3b432U, 0xbd2cc3723ba94a79U, 0x3b83538cbca54c59U,
    0x3d35e2cbbd56288eU, 0x3d008b7f3c64745cU, 0xba7c233e3b1c9678U, 0x3ec0782ebe2a60c9U, 0xbd0025963e26b2bbU,
    0x3fbb5b04be130cceU, 0x3e350f66bdef4a6fU, 0x3e342a9cc0f12104U, 0x40ca8a373dee93f5U, 0xbf0d5706be39c456U,
    0x3dc1a1ddbd85856aU, 0x3bd3ab32bd27faf9U, 0xbda2d4343dfb1dd6U, 0xbd8eb4b0bd6a088fU, 0x3c645bdfbd8a220dU,
    0xbd667b0f3f05914eU, 0x3f518b14be7d668aU, 0x3c377342bd5f0a76U, 0xbe0332dbbd7d57feU, 0xbd850abc3bd7a4ddU,
    0x3ba84de3be0b0f2cU, 0xbd9ca9473d1d48cfU, 0x3d28695bbc7b6632U, 0xba7bc422be40740dU, 0xbe200aaa3c0999e7U,
    0xbf7cf539bea37ee7U, 0xbe8d8cb3be70c89bU, 0x3eb89a593e666782U, 0x3f3bb1ee3e271077U, 0x3f5c8fa5bd00de8eU,
    0xbebc4920be169f77U, 0xbe4042d5be83fd1aU, 0x3c371f183c152f35U, 0xbe903b2fbedec623U, 0x3f60c0fc3f46c3fdU,
    0x3d5962e1bdc33101U, 0xbc5ebeb9bd4e1c90U, 0x3d452befbd91f83fU, 0xbc6b8e79bd8ee862U, 0x3d7c38f63d66c0e3U,
    0x3e74af72bf11589cU, 0x3bd0b840be313578U, 0x3c922749bf6d0a6cU, 0x3f52ac793f42aa50U, 0xbf07862c3db79f96U,
    0x3c11c85abb48a73fU, 0x3b744c2bbc28a636U, 0x3a84784c3aadf164U, 0x3b9635e2bb0680d1U, 0x3b9159c8b9665abaU,
    0x3d88a97d3c727828U, 0xbc05da9bbca3fbe4U, 0x3ddcc1e63c52b989U, 0xbe14cf373d26c72eU, 0x3df7075abdb74093U,
    0xbd9c360c3be42b11U, 0x3d65a075bc2a94a2U, 0xbdb08297bd85b322U, 0xbdd2c50f3d4d0457U, 0x3d7a24ef3c4fd7faU,
    0xbd3c9bc83c904259U, 0xbe71381f3d2b7f4dU, 0x3e010b1c3d87e326U, 0xbdfc1dee3da3f481U, 0xbec44db63e4de12bU,
    0x3d7519e9be0ac052U, 0x3d7d3df53e096941U, 0x3f056622be90aeddU, 0xbdde6c793df83511U, 0x3d678796be55c6daU,
    0xbf9e16af3efb558bU, 0x3ed5b5e23f3dab43U, 0x3ea5a076bf00b83aU, 0xbedf1d583dfb005cU, 0xbecb30213c619b1eU,
    0x3c277e6e3de5bc2fU, 0x3fa8fae0bf574b10U, 0x3f9dbcc4be783a7dU, 0x3e59032c3f97f145U, 0x3f2c06323f8a9801U,
    0x3f7746e93e2ef706U, 0x3e33c5aa3e307c25U, 0xbe8d866c3f60d3c8U, 0x3f739d213e0a7474U, 0x3da40a12bf216fc9U,
    0xbf0833203f022f4aU, 0x3edf4164be977441U, 0xbe3adb09bf0ff80aU, 0xbefb2fb23e907e73U, 0x3e1e5d4bbe8c42bdU,
    0xbe685de1bed84aa2U, 0xbe6c85143de96f61U, 0x3de5c966be9384fcU, 0xbc95b154bf1f00acU, 0x3d1ac156bf10dda7U,
    0xbd85bd41bef6dbaaU, 0x3ecf3039becd7fe7U, 0xbec9092c3e09a945U, 0xbef76ac23ed9e3fbU, 0xbf199eb83d8a9a85U,
    0xbf2930803dad330eU, 0xbe899c20be40a73cU, 0xbedc9336be30736aU, 0xbee53c34be0ebda7U, 0xbec7c590be1d82d6U,
    0xbec5116fbde17eddU, 0xbe84359fbcb72a9fU, 0x3f1dc9a2bb48db6bU, 0x3f0c3073be170d82U, 0x3e8a9060bed26128U,
    0xbe80bf3abe4b3932U, 0x3f07442d3ea94013U, 0xbbcd0af63f13cccdU, 0x3b74f6d539f2ac00U, 0xbb363593b9e10e11U,
    0xbaabdee7bb4316e7U, 0xbc62e20ababbdedeU, 0xbbe96662bbff7ccaU, 0x3d8eb9903b593393U, 0x3e2102683d560858U,
    0x3e8383633e02157dU, 0x3e4aec9d3e037d43U, 0x3e7357233e6d592bU, 0x3d692d143f0d36aeU, 0x3e8f0e7e39c61768U,
    0x3f22f214bf30bdbcU, 0x3e8b7fe43f184b03U, 0x3e9529703efcae51U, 0x3ef51519bf397583U, 0x3e90f3583ee85c4bU,
    0x3ea445a63e61c839U, 0x3ee4d8e4bf0ad984U, 0x3c2d34343eacdfe2U, 0x3e8e36103e8d2e5bU, 0x3e9d2487bed19e52U,
    0x3cafe9233eaa5272U, 0x3e8574643dfd7867U, 0x3e8138dbbe9b6083U, 0x3f030bedbfc9953dU, 0xbf875db83e0c8b78U,
    0x3f0bcdecbe911f4bU, 0xbf774ed8bf8d05c2U, 0xbf6d1d12be1e08d1U, 0xbfb0f287bf038bffU, 0x3f709ae5bf46fbebU,
    0xbf104ae2bfaef81aU, 0xbf78b53f3cfa6150U, 0xbd2a92e1bee409f9U, 0xbe91adc8bf33c28cU, 0xbf00fad2bc3f394dU,
    0xbce3d4edbe99c59cU, 0x3cf12b5ebef65fbcU, 0xbdc3090c3df9796cU, 0xbdabd00bbd585891U, 0x3c228858bcca3f05U,
    0x3cb0d710bd7f63a6U, 0xbe1f3abbbc69a2d8U, 0x3bdc28aebd238da0U, 0xbce563a5bde1752eU, 0xbdc1a5f53d99cb43U,
    0x404cc5a03f4df527U, 0x4039b5733e8447b9U, 0x40079154beca0835U, 0x3f8d5bcdbf22eb18U, 0xbe66bf033e1dcb6bU,
    0xbecc8d7cbf5b85ecU, 0x3db7477cbdcda064U, 0x3e393f853e21e1c9U, 0x3ee51d25bf39fb2eU, 0xbeba2ccd3d38b900U,
    0xbecb0380bf421da4U, 0xbeb46a1abf3b86fcU, 0xbe90ee82bf390ef5U, 0xbd792e0bbf43debbU, 0x3deabddebf352142U,
    0xbf3a4270bf918d92U, 0x3bc3aee6bfa8429cU, 0x3ec6c69bbfb3de5aU, 0x400bd76ebfb957b7U, 0x404a08f6bff6e280U,
    0xbd0e88213b03d098U, 0xb9f4170abc1ee0bfU, 0xb9b95f67bc87151cU, 0x3bacaad7bba00987U, 0x3c510be9baa2197cU,
    0xbdf1ab84bd33dbd3U, 0x3ccbe559bdd70b2eU, 0xbd65dc9ebda44d81U, 0xbd93c0b43d71ba31U, 0x3e994973bd26bc65U,
    0x3cccd24d3e96fd10U, 0xbf774f09bd57fbd6U, 0xbd4135f43ddf35b6U, 0x3f1b32f53daac478U, 0xbef3532b3c87a715U,
    0xbd08176f3e1e7d15U, 0x3f0ea4ce3c0bcb38U, 0xbf0104ff3b5b539fU, 0xbd799d2a3eaee995U, 0x3f329e15bcba7300U,
    0xbee7c21ebeae21ecU, 0xbd33d5a83ef6f3b2U, 0x3f03ef153d036a4cU, 0xbd69bb17be412335U, 0xbf1d8f2b3ecaa0e8U,
    0xbf1b839cbf09fe0cU, 0x3eea6b933e1f22e9U, 0xbe9795c43fbf4d91U, 0x3f0c4572bee5a7dcU, 0x389a8efcbeda2855U,
    0x3e22b310be8f7125U, 0x3af4dce9be3d6995U, 0x3ea0baeb3e887289U, 0xbcf413a1bf527fffU, 0xbf4446ec3eb91dd8U,
    0x3e7728433d3b6964U, 0xbdaf8691bf5b7091U, 0xbf3a72f53e8df16cU, 0x3e0ccefabdaebf6cU, 0xbd3bdde3bf24d2ceU,
    0xbc6d0f713c9535d1U, 0x3b3e54fbbc17aeb2U, 0x3d78a4b83df94cd2U, 0x3d80a950bc0bb72bU, 0x3b2a66583d3d92bdU,
    0xbd8d1c183e28a572U, 0x3e0cf32ab99f43fdU, 0x3f0b0cccbda23266U, 0x3dfb8f62bf7344fcU, 0xbf1cd3933e71125fU,
    0xbebd50e83f3b844dU, 0x3d4f0b2a3e09f095U, 0x3f4aa3b43d0cfaa8U, 0xbf8f3988bedfa29bU, 0x3e1194b73f10534fU,
    0x3f0902f3be88c70bU, 0xbec1af90bf04bf43U, 0xbe3c0ff8bebe6031U, 0xbd3fe304bca95845U, 0x3dcd29a4bd5ab176U,
    0xbd524428bdc074faU, 0xbd86b1dabe3142abU, 0xc005fec0be32b5f7U, 0x40da51f33f71aa24U, 0xbf9a14cec05af045U,
    0xbfe02304be113c38U, 0xbe6a66b03ee0f415U, 0xbba343eb3c07a5d1U, 0xba9f62693c561e96U, 0x3b4cdcb7bb1bb314U,
    0xbb43ac98ba1159bcU, 0xbbf7aa483b4d8cecU, 0xbe32bd6abc84f829U, 0x3e261dac3f2646acU, 0xbdd8a7cec00123c0U,
    0xbc281f253f3e261eU, 0x3ce7651f3f160d5fU, 0xbe9097033e8f7e35U, 0xbe4bcdc93bcffcecU, 0xbc78a0aebdea2565U,
    0x3e7c03333eb8e2c0U, 0xbdbc38183d30545eU, 0x3f2df2e43f406d02U, 0x3dddcf23bf840eedU, 0x3e9952d3bdb146dbU,
    0xbe658a93bee7edcfU, 0xbe0db402bedecfe3U, 0xbe4c00743c1db461U, 0x3e962c2dbe5b9ab1U, 0x3e90ca4a3e862ef9U,
    0x3cff8d0bbe604e1bU, 0xbe444f03be65cdfcU, 0xbec40fd23c32edbcU, 0x3e4722a93e7c2640U, 0x3e7d6da33f007b0cU,
    0xbf2ddb0c3e94bbb2U, 0xbd9bf1193ef84c48U, 0x3e8210ac3f3dd9b4U, 0x3e81aaaebecbef72U, 0xbe6b407cbf6a1943U,
    0xbd82937f3dc18fcdU, 0x3e20829f3df6b0d2U, 0x3d0bc830be238cd9U, 0xbea9272b3e403301U, 0x3e738a383d66b621U,
    0x3d98f94dbefac2e5U, 0xbf5fb55a3dd279aeU, 0xbbc39c09bc6f3604U, 0x3d4f0614bd80a4dfU, 0xbe12d742bcee90c8U,
    0x3b96b70abd567ff8U, 0xbc4ef7b0be12dcdcU, 0xbcf2810dbcae4ff9U, 0x3b2fe13b3c8b3470U, 0xbd6604da3d0ea8eeU,
    0xbf865ac63f111f95U, 0xbf46caae3f1f9e73U, 0x3d02cf9a3ebbcca9U, 0x3f2190e3bf27fb2fU, 0x400e2268bf7f7123U,
    0x3f3428cabef000c4U, 0xbcbc4752bc6539d1U, 0x3d069ecbbf3994ddU, 0xbef1c488bec1d61cU, 0xbed6f24e3de1934fU,
    0xbe9930ba3e7ae26bU, 0xbe5cbfbf3e935e38U, 0xbe2f239c3e7637dbU, 0xbdb2ad033ea02d15U, 0xbd1909bf3ea3501bU,
    0xbf33c21a3ff52531U, 0xbea2e2243f1e6c05U, 0xbf56e1553ff19b6dU, 0xbda5a05fbd3edf0aU, 0x3ffa7440c03de1cfU,
    0x3eb628b23b0bd899U, 0xba1ad9023bccefd6U, 0x3acbc70dbab8cbccU, 0xbc851d2a3a50a399U, 0xbebad3dfbaeca8f6U,
    0xbe6be8973ddda0c1U, 0xbd83d24c3dd535ccU, 0xbe8f8f803e5ecf72U, 0x3da685b2bc0f73e0U, 0x3fa1ae0abd5e938aU,
    0x3e4fe42b3d32a61cU, 0xbec995733dcb23ebU, 0xbcddf09c3e91f00eU, 0x3c9118a6bd86b53bU, 0xbdd64f6e3c5a8b20U,
    0xbe948132bd3893cfU, 0x3e350c31bd9d7f93U, 0xbe4fa5c9be275993U, 0xbea6557e3e8ba4faU, 0xbe89a9f23dd2961dU,
    0xbc2deff1bdb18c0eU, 0xbea99690be932c06U, 0xbe55fb153e1a57c0U, 0xbf0cebddbd9f1e2eU, 0xbe8878e03e0c9ae1U,
    0x3f3f7ec83e08577fU, 0xbe382aa73e556195U, 0x3f0587133f0a98f1U, 0x3e62f3e4bdd7d2f1U, 0xbf35bcec3e92769aU,
    0xbdc2af1e3e4ae9c1U, 0x3e3f4629bf51d921U, 0x3ed29687bdf7fff3U, 0xbd5d639ebf083f06U, 0xbed87b683ed2a908U,
    0x3eba786fbdaabf24U, 0xbdce1109be91e7c8U, 0xbdfadac63ec6a9e4U, 0x3ed6d839bcbcf50bU, 0xbe19b6f73d6764a6U,
    0xbe0f9a86bcf183a3U, 0x3d4406e23e3005b4U, 0x3df033bbbde5fdceU, 0xbd292d7d3c084135U, 0x3c85c91c3e534f43U,
    0x3e2e1e633ca5d77cU, 0x3d6103de3cd70d99U, 0xbe0330bc3e6e67e1U, 0x3dc6a710be886252U, 0x3e3493e6be3c9822U,
    0x3eecca35be8232a7U, 0x3e9a0b3ebe9cb7c1U, 0x3ea67a27bf04f03aU, 0x3ecf88a93dd93039U, 0x3ece46b2be7dbd2eU,
    0xbd2050e4bef8140fU, 0xbee22215bf0d8923U, 0xbf0f2847be4d2213U, 0xbf0faa903ec3c83cU, 0xbf3498943edb54f8U,
    0xbf4500233ecb075fU, 0xbf54aacb3eb70601U, 0x3eb036723ea8a89fU, 0xbecf9b213fe5b64fU, 0xbf2ac67740078510U,
    0xbf5589753fe41da4U, 0xbf46e6d13f90f6d4U, 0x3c5412cc3c25c29dU, 0xbb519fc7bbee0416U, 0xbb6cb90c3c090346U,
    0x3b8581aa3a820b0bU, 0xbb399a6ebb88fc78U, 0x3d336b903b6f43e7U, 0xbcfa7ffb3e352540U, 0xbd5373573f06bbdcU,
    0xbd97e1733eaefe53U, 0x3cb2fef93e6c6530U, 0x3d7a14a5bd9010a5U, 0xbd1dac293e18949bU, 0xbdb82fa23dd330ecU,
    0xbe7c18d9bf1d9b11U, 0xbdee4d593ea8d104U, 0x3d4f5eb93f279d08U, 0xbed59836bfa98269U, 0xbe4f98423e09f98fU,
    0xbdfabefb3f41e513U, 0xbe9ee7cbbf90ab70U, 0xbe9ea1013eac45b8U, 0x3e0160333f42c567U, 0xbe0ee988bf43c5bfU,
    0xbe7769563dda51e4U, 0x3e053da93ed1a437U, 0x3e9cf214bebb5694U, 0x3e9a9ccebf4669e4U, 0xbe978033be0e6b32U,
    0x3e91efd23e9e6339U, 0x3eb4f01bbe9475acU, 0xbe02fde43dcab7f3U, 0xbf2a6772bdc6dd16U, 0x3fa28e48c0247803U,
    0xbd1d07f1bf627d76U, 0xbf8598eabcff9b38U, 0xbc63fd42be04b4fcU, 0xbe4ba660bf8fb5c8U, 0xbfa6c4a4bdbbd245U,
    0x3ca40aa6be89961bU, 0xbea5d3d7bfc1d655U, 0x3d42f99ebd42b840U, 0xbd35801fbe15e81aU, 0xbdfbc24abcd5c702U,
    0xb96f6df83d1e812eU, 0xbd034661bcafdaf9U, 0x3c8d0477bd2a3accU, 0xbc7320f03d41b522U, 0xbdb13961bdcd3529U,
    0xbf2648d8be0bd42cU, 0xbd823a86be435f89U, 0x3f2004eabf33d70aU, 0x3f7a1cf4bf6455c6U, 0x3e1e9eba3faa6e49U,
    0xbeba40923c8cddc0U, 0xbe8cd63abd8eff32U, 0xbe64510cbe451d1fU, 0x3c506e6c3d10f834U, 0xbeab56163f612748U,
    0x3c89a5793e17d5cfU, 0xbd6756243e0cd7c6U, 0xbdfbfad43e4d51f0U, 0xbe2039363e4da8f0U, 0xbd883b033e1b1cc9U,
    0xbfa117fabd8dfde1U, 0xbf9887803cfbe1c4U, 0xbf8867863e7e1077U, 0xbf9e03733f81d59dU, 0x409ebd9cc0fbb3edU,
    0x3be1dcba3c0cf6edU, 0x3abebb7c3c151bcfU, 0x3b8e7386bb341302U, 0xbc22f1f6bbb45b6eU, 0xbbe93f1a39a35fe6U,
    0xbe8cd9abbdd1f879U, 0xbe959c30bda6c0acU, 0xbeb14331bd19f187U, 0xbef7ce1dbcdfc69cU, 0x403b3463bda6a83fU,
    0xbd54caa2be809c44U, 0xbdc2832a3e415848U, 0x3e0accf9be67b64dU, 0xbe099cc8bc94dbb3U, 0x3e981b0f3ec9277eU,
    0xbe7da35fbe3edce2U, 0xbe9c9d60baf61957U, 0x3e9a9f013ebbbe27U, 0xbe7c8964be391a2bU, 0xbde995d2bd0a7226U,
    0x3ea5c8ab3ed83309U, 0xbe00b97ebdf95632U, 0x3c089093bde3aac4U, 0xbf984ec13e918ed5U, 0x3c7371e23ea17902U,
    0xbf1dfa35beb9dc40U, 0xbeebd075beb494d3U, 0xbe897c60bf384ebcU, 0xbeccf4d8be437ed1U, 0x3e204102be2bf12aU,
    0x3e75907dbf188f40U, 0xbf21b715bf5a5313U, 0xbee6a016bcd58861U, 0x3e83c52fbef8812bU, 0xbee12f9dbf10542bU,
    0xbf16ad543e83c779U, 0x3e8baddbbed37048U, 0xbeddccecbf1e43b4U, 0xbf1dff6d3e5825fdU, 0x3e9421a4beb45e6cU,
    0x3ea585b73c47926bU, 0xbc9345ccbe87696aU, 0xbe574ec73e25305cU, 0x3d335438bd08a563U, 0xbcc20b1fbe580c19U,
    0xbe6a6fc13d9c097aU, 0x398cc19bbc8c1fc0U, 0x3f154fd7be8c47f7U, 0xbd9f4bd7bf1d9105U, 0xbf0169aebe9b6de6U,
    0xbf0bfa3f3dccb9edU, 0xbfb068ba3f22f13eU, 0xbf9207883fa4f33aU, 0x3d8334503e91c820U, 0xbf51fdb03cb4c957U,
    0xbee893ff3e91be23U, 0xbfdd26d33f0955d0U, 0x3ebe83993f1e00d0U, 0x3ead64a33e080bd0U, 0x3eb7b1073e061096U,
    0x3ee6ac413db8b5b2U, 0x3ef0998c3da25f11U, 0xbea30b913d00b8ceU, 0xbe9823af3e6e52f8U, 0x3dd964983d5b8166U,
    0xbe5c0e6fbf227d3cU, 0x3f4672ba3f3d0d2fU, 0x3cc5f41dbfbd609bU, 0x39362ad1bc6227b7U, 0x3bdaeb72bb59fcd4U,
    0x3b8c30b5bb3a029bU, 0xbcc0cc2a39b2a5ccU, 0x3e0dd98e3c2843d1U, 0xbe7eff5cbdebad63U, 0xbe32200b3cf4e33cU,
    0xbe3893afbe566e3aU, 0x3e092af93db159d2U, 0xbe91c333be920179U, 0xbe97c29a3e19a5edU, 0xbc29ca1abd69ee2cU,
    0x3e4e85153d317173U, 0xbe604ea43da07dd6U, 0xbc814da13a5ce5efU, 0x3e3cf41d3ddf9d2bU, 0xbed89ef93e0eb5daU,
    0xbcf5b2a1be16fd3bU, 0x3eb8e7d73e3addc2U, 0xbe57b9463bb8e077U, 0xbdd6be423e4074fdU, 0x3e4f0611beed709cU,
    0xbe6e02f63e62f391U, 0x3e2f1c6abf2cb414U, 0xbebe29033e6a74c0U, 0x3fadcca6bec29d8cU, 0x3f882e6840787b08U,
    0xbdc9ad2c3f9961d8U, 0xbe61ee0bbec4e281U, 0x3d30abe6bf2fc462U, 0xc0074630bf91ce8eU, 0xbf6b6e65bee91b81U,
    0xbf30ea20bf1a4780U, 0xbf13431b3e45b27dU, 0x3de750b0bfa86ccbU, 0xbfdb820abec88c94U, 0xbeae618b3dae3a97U,
    0x3e40f196bfb4f4b6U, 0xbf83cd03bdfcb327U, 0x3d15f29b3e077b3eU, 0xbccad160beaa1edeU, 0xbd8ead01bd410de5U,
    0xbcedecedbd0c5f17U, 0xbdec434cbc519bffU, 0x3c8dfa343b178bc5U, 0xbc9d45cfbd68c836U, 0xbe3316393d0a2ee9U,
    0xbfb038e43e3dd9b2U, 0x3d8f0aa73f05fd9aU, 0x3f19b6e23e1c90a6U, 0x3ef8d3c8bee980b9U, 0x3ee6db8ebf13113dU,
    0x3e1d24123f013774U, 0x3f41f524be42a857U, 0x3e3edab4bf0a8b68U, 0x3e3d1ca4be583d11U, 0xbee766243f15423bU,
    0x3e2f136bbd67874cU, 0x3e80d19f3d13af10U, 0x3e4a13ad3dcbb863U, 0x3e894d9c3e0f649cU, 0x3e8434e33e0d13bcU,
    0xbce8b40dbecb957cU, 0xbeaffef83fabdd2fU, 0xbcb9d8903fcc2a75U, 0x3fce5cf03f8c88eeU, 0x3f993938bf054a76U,
    0x3b1e5d283bb11f50U, 0x3bdadf63bbdc95cdU, 0x3c1f15b03a024152U, 0x3b449693bb3d99f1U, 0xbbbdde0b3b5b769fU,
    0xbd5705a53d602507U, 0x3d6a6e593e830834U, 0xbd47421fbe2c8e96U, 0x3d719a093b24f29fU, 0x3e0625623d7a8ba9U,
    0xbdc353d43d121bb9U, 0x3ed503bcbdca609fU, 0xbe53d04bbe859453U, 0x3ebd6d9ebaac1ef3U, 0xbd6558363e17c8fbU,
    0xbdf854fcbd6950c1U, 0xbfa0f4e53f1d1ba8U, 0xbf53a8c33ebf67d3U, 0xbe0f96593dcab4b6U, 0xbed889a2bd32ed73U,
    0xbec73bde3cd432adU, 0x3e82e63c3e3eda7aU, 0xbde1e271bf094f16U, 0x3e864d7a3dd4120dU, 0xbd486a92bf29ab75U,
    0x3f03ec29beea9239U, 0x3cf7d86b3f90f6a1U, 0x3f2358c53eb9e113U, 0x3e0c88243f02a27eU, 0x3e8a1ef63ecd55ccU,
    0x3e6080033e0a5794U, 0x3edb48b9be42c5cbU, 0xbf27d6acbdad7874U, 0x3d1da5113ed38cefU, 0x3f30cbb4bf1e32d4U,
    0xbf17f0d13c836948U, 0xbce5fa7d3f5da511U, 0x3f84093ebf15d79cU, 0xbf0b787ebd704c2cU, 0x3bc0a5983fc75f52U,
    0xbf58d9fc3d362e1fU, 0x3d5e69af3cba6a28U, 0x3ca39481bf006779U, 0xbea6a7c53c84fcd2U, 0xbcfac68fbd99efefU,
    0xbd42c8ddbde8e50eU, 0xbd4405283c805c12U, 0xbe46f28abdb011feU, 0xbdeeef923f1747fbU, 0xbe8179b23cc8aa92U,
    0xbd30c0d3beeaa72bU, 0x3f2da3acbf458cc8U, 0x3d4a8068bf911c57U, 0xbdb24bfdbd22d272U, 0xbede99cabdcabebfU,
    0xbe62782ebd7a7966U, 0xbecaee5dbec552ccU, 0x3c05e529be81589dU, 0x3ddccf8b3df2f08aU, 0x3dcb6aea3daa8264U,
    0x3d6d5fab3dcc6593U, 0x3db46005bdcccb87U, 0x3f255bacbe3690e2U, 0x3e949f603bc10b38U, 0xbdfbe3dcbee3d321U,
    0xbe733124bf218f91U, 0x3f917443bf9af76bU, 0xbb2904acbff76860U, 0xba69ff34ba55446aU, 0xbbb80608bbe0bc9eU,
    0xbbee7bd9bba13c8cU, 0x3ba512d8bb2366daU, 0xbc7c1c00bbbd4e77U, 0x3a7360503e25f0b8U, 0x3da447bb3d037ac1U,
    0xbdfbf57f3d09967aU, 0xbb78bd4ebd74e1b4U, 0x3e8c8c43be65db80U, 0x3e392bba3e3499d8U, 0x3d8656fdbe962e66U,
    0xbc9057663dd6945dU, 0xbcbbc7fcbc55620dU, 0x3dc419cbbde8a4a9U, 0xbe61d7f4bd008721U, 0xbe0e3171bdc9579cU,
    0x3e112e96bdca3084U, 0xbdcfa20dbe84a007U, 0xbebff2213d2f7a44U, 0xbd28df72bd952587U, 0x3b82e96bbdc86970U,
    0xbea0ffd63dc01506U, 0x3d1c1009be9b1bc4U, 0x3f19f3c9be870aa7U, 0x3fa06c1a3f7d4c9bU, 0x3edfb5e63fbb101aU,
    0x3f347baf3f2cf115U, 0x3f2ab65c3da2a8a3U, 0x3c1f0c5f3f0d63aeU, 0x3ed7fcd23ea54f40U, 0xbcf0ca293f5734cdU,
    0x3dcf5e583e8b6679U, 0x3eb231c33e0a34c8U, 0x3df849773e84d6a0U, 0x3f1945c93ef15cc2U, 0x3f1f59793e8bf041U,
    0x3e52c3233f65c5aaU, 0x3f8154013f490c07U, 0x3d1fefd03e95d1dbU, 0xbca2f35cbf14274cU, 0xbec78aeb3d95bb5aU,
    0x3d793deabe33d74bU, 0xbe097e96be57d88aU, 0xbe27e82f3d73720dU, 0x3cee776fbdb80bd5U, 0xbd5a7980bce1d594U,
    0xbe6a6f703f72710dU, 0xbf09d6603ee8b9ceU, 0xbf2516173deffe3cU, 0xbf8bef95be4f768bU, 0xbfef79e63e26dcb5U,
    0x3effa19bbf097e85U, 0xbcdecac53e4e7245U, 0xbeaa38a7bdbba144U, 0xbf11ddbbbe09d590U, 0xbf2d4ffebf17f360U,
    0xbe6177f2bd4d269eU, 0xbe769e24bdd3c213U, 0xbe5e8f91bd5590e2U, 0xbe62a1aebc710d7fU, 0xbe3f184fbcdf1bccU,
    0x3f3d86193e51c12eU, 0xbea9682d3e76834cU, 0xbf14c933becfc2ebU, 0xbf6a6c3bbeea864fU, 0xbf88d0243e61c85dU,
    0x3b82f4293cc6b584U, 0x3b9687323c0e2185U, 0x3b0e3cce3a0b051eU, 0x3ba6c0c139a15a04U, 0x3cb7fa94bc56e32aU,
    0xbc8f85b03f299340U, 0x3d9604213eda66f3U, 0x3e361f533f06300bU, 0xbccb86053e9ab374U, 0x3df6c21a3e6c1ac2U,
    0x3f708c7ebdcb7e15U, 0xbdd92d773e911d75U, 0xbf00cbf63de832cfU, 0x3f0752453dcb3fabU, 0xbbdf8790bdd2dad4U,
    0xbd645cee3c119647U, 0x3f18ed90bd38710aU, 0x3d8605893e56ada3U, 0xbda9be503d2513a9U, 0x3f0bc19e3dc19d6bU,
    0x3d90aedd3eb4b313U, 0x3e334f6abc1f54efU, 0x3eb87d963e1d799bU, 0xbd8361f83efc4c98U, 0x3e3626bd3e49f9e6U,
    0x3f439a933c89a4c7U, 0xbe36d37fbf389164U, 0xbe943e603ec026eaU, 0x3ecdccdfbd236cefU, 0xbe995e49be8d9efeU,
    0xbed209ae3e968bbaU, 0xbc6c863d3f781f87U, 0x3f6ba6f5be1d0f78U, 0x3e08819ebbdddd1eU, 0x3c2f32bc3f51aae3U,
    0x3f4a6f0d3e1463b5U, 0x3e0a3b493c97231cU, 0xbbaad8fa3f485d1aU, 0x3f3a14013d3addc7U, 0x3d998a27bd898037U,
    0xbdd8721cbb2b46edU, 0x3c982b0fbdcb5344U, 0xbdb88235bdb8e3f1U, 0xbe4ec04c3c578474U, 0x3c4c2464be1c3fa6U,
    0xbdbcc7e9be6bbfccU, 0xbdc7be173b1da412U, 0x3ddabc1cbd600894U, 0x3ec72a7fbf8df968U, 0x3ea1464dbf0ba7aeU,
    0x3ee4c8633cd658a6U, 0x3f299aa53f0c24e7U, 0xbf058b533fa146a9U, 0xbee415f33c921c17U, 0xbf3c771cbc97c552U,
    0xbf17e85ebc8a1338U, 0xbdd7d759bc9b010dU, 0x3e32cec43f325d15U, 0x3dbe356cbd7e33c7U, 0x3dca3926be181c39U,
    0x3dbcf505bdc2d902U, 0x3e3dfd1bbdc7e43bU, 0xbf6551dcbd69ca07U, 0xbd061b16bf26e823U, 0x3edee29dbf4817bcU,
    0x3eccb03bbf2e0091U, 0x3ea11ffdbf11b1ffU, 0x3b3f5582bf1044ecU, 0xbb56dbe33bb3f3fbU, 0x3b26e2a439eaa19dU,
    0x3b4e92f8bace000eU, 0xbc28f90d3ac6c326U, 0xbc0e8473bb16e647U, 0x3d49c3893daf840dU, 0x3d0f5413bd40ba0bU,
    0x3db40864bd8f4a99U, 0x3d085be0bd78d37cU, 0x3ed31ba4bc4ec94cU, 0xbe2e90e5be456b03U, 0x3e00f4053f193fe6U,
    0x3e293daebd739fadU, 0xbe22ce4dbea22811U, 0xbd967ee83dc5b2e0U, 0x3e19e44e3ea2f1e3U, 0xbdf3e875be18d27cU,
    0xbd193af03c402d34U, 0xbdc6ec9e3e9957c2U, 0x3ceafe983c08a0ecU, 0xbdc172103e1e06ceU, 0xbe2759003e407806U,
    0x3c8abd903db88abdU, 0x3d3103b23dbf9f9cU, 0x3ecca5653d3ee57dU, 0xbe3f69d6be9ad041U, 0xbc84e86a3ea2eb40U,
    0xbf7d59ceba439da1U, 0x3edb71cbbf8099b1U, 0x3d5bd91f3df028cdU, 0xbcadc6943e89d788U, 0xbeba52353ee134a6U,
    0x3e3937bebca8c5afU, 0xbd67f585bd86a541U, 0xbd9bab643cad7e4cU, 0xbd7b4522bda8472fU, 0xbe35e002bdce759fU,
    0xbd5d5bb5bdf405e6U, 0xbe817f3dbe88eaacU, 0x3bc0e4b23c7eea54U, 0x3d70c6e33c9497eaU, 0x3d0e44afbc8234abU,
    0xbb6abda83caeec75U, 0x3d785d933d4e20c2U, 0x3c8041653c8142dfU, 0xbcb4c38a3d0f0222U, 0xbd7549fb3d9bc61cU,
    0x3ee3226bbf15ae1cU, 0x3e67aebdbe7fcbd0U, 0xbdece1843e0be58eU, 0xbc1809ee3e8321afU, 0xbdaf956b3dea52f1U,
    0xbda64dabbc66908cU, 0x3d9661f6bd395593U, 0x3ddae5fc3f26157bU, 0x3e4dac6cbeb7f494U, 0x3d34d886bcd2fe6fU,
    0xbe14566f3db10248U, 0xbe3f07773ded27d4U, 0xbdf4b483bbc21ad5U, 0xbda643f13c5bb5c8U, 0xbe15ac30bb185cd3U,
    0xbea0d0f1bcc4d2fdU, 0xbe60265e3ea6d72dU, 0x3fa7e9c7c0664e13U, 0xbe8a485e3fb9ed1cU, 0xbea91dc33f1ea839U,
    0xbf35d702bb76c6c2U, 0xbc7d41cdbb4ca662U, 0x3c4152a83a8ad52eU, 0x3a0f201fbaff745bU, 0x3f36ca94bacb8ef4U,
    0xbe58e00ebd1bc838U, 0xbeffb145bd273495U, 0x3f38dcd9bc4b0404U, 0xbf59ae99bcdb3141U, 0xbe895480bcc07f35U,
    0x3b09dda3be3aa141U, 0x3dee05d63d58fd6dU, 0xbdbec139bd9d20f7U, 0x3d9b8974bb7f9070U, 0x3ec1f0ce3e30971fU,
    0x3c0e576dbd2f89e5U, 0xbd0d671abdd1e344U, 0xbf0a53883eb488d7U, 0x3f5972143f3eaa6cU, 0xbdb5c5d03d8ad23dU,
    0x3db3b888bd834483U, 0x3d16420fbe09edcbU, 0xbdacc54c3e0c4ddeU, 0x3d3435ea3d8e0f39U, 0xbb1f3d51bd63da44U,
    0xbe0235253e86a05cU, 0xbde4bc8c3de94644U, 0x3e529b3cbe514eb8U, 0xbe89a372bea77fb8U, 0xbe5f68483efcd4c9U,
    0x3f1021d3be69e3a0U, 0xbe172e01bf18d676U, 0x3f068c333fafe54cU, 0x3e1e06e63d674cd4U, 0x3e5ab8183ed4c955U,
    0x3e9fe1583da05f12U, 0x3dc78c323edde6f4U, 0x3f1e78c23e72ef3eU, 0x3e1376893e1f2100U, 0x3e5c31333f480674U,
    0xbeb66f97bc714460U, 0x3c48f7abbd547bc0U, 0xbd358690be241efeU, 0xbe30cb20bb269069U, 0x3bbb6471bd04fa1fU,
    0xbe1cc53abcfe3de8U, 0xbdd382303c260057U, 0xbe118189bc6ad98dU, 0xbdd93d283f8a7f80U, 0xbd7abdfd3f4ea415U,
    0x3e676c323f2245cfU, 0x3f02e85a3e401e2fU, 0xbd290c62c01a7e6fU, 0xbbad050fbd84247fU, 0xbe0508d53d2e250bU,
    0xbdcd76babce9ec78U, 0x3dca9614bcc0360bU, 0x3ebdec3d3d5d28d6U, 0x3e9d86bfbe742d94U, 0x3e890de0be4cf583U,
    0x3e8acba6be2505ecU, 0x3ea4c664be036aadU, 0xbf3eef92bda0a182U, 0xbe707af8bd7f0be8U, 0xbd03509039df645bU,
    0xbe0a6f30be6f7773U, 0xbf0d1822beb5916fU, 0x3b17f58d3f2d3612U, 0x3b521953bada2e21U, 0x3b028472baff4995U,
    0x3b4abf6ebb05e2b4U, 0x3aad84b4b8a6e0afU, 0xbca196f4ba0ecf5fU, 0xbcf520a3bc317eddU, 0xbd5453143c902a82U,
    0x3b44288abc027f61U, 0xbbe52db23d55ad64U, 0x3de5763f3dd5039bU, 0x3c9df693bd77a024U, 0xbcf6f87c3e88faccU,
    0x3d5385603dfdc802U, 0xba172829bdba5e0dU, 0xbe0f3d483e0a6441U, 0x3e0efacf3d27e969U, 0xbb98f818bdbf4ef8U,
    0xbdb7be08bc30e730U, 0x3d9a93e83da81b07U, 0xbd3a109ebd00ace1U, 0xbd8d0961bc9bd7ccU, 0x3d7159b5bc9d58c5U,
    0xbd6a81c1be2b8b56U, 0xbd669dda3d079f71U, 0x3f450c6abd300d13U, 0xbeb8a98a3d9131b5U, 0xbf133326bee561acU,
    0xbef8a68f3ed6d7fbU, 0xbf0af7ccbf4e1232U, 0xbe2cb6fbbd1d6f9bU, 0x3e299f123d01a187U, 0x3e97e2f23ee885e0U,
    0xbd1f9432be989417U, 0xbe9b6e433e2f6496U, 0x3de3f715bc32735dU, 0x3e082308bf08859bU, 0xbf1f15403e15c197U,
    0x3e0119aa3e84514fU, 0x3e581396bf0c4080U, 0x3d1a8d783e34f4ecU, 0xbdc41ed8bcf26aaeU, 0xbbb9c0583c9b1da2U,
    0xbd2076ecbe50fd18U, 0xbdba970ebdf25dbcU, 0xbd866b61bcca8da4U, 0xbb05e2e9bdf54d86U, 0xbe6f88923d4769d1U,
    0x3eb6aaba3fcb93d3U, 0x3d033f46bde23bebU, 0x3f0f2575bf41132eU, 0xbeadf6ddbe6cae88U, 0xbf19a6eebc24bad0U,
    0x3d8f4fc33f4747dcU, 0x3ff09596c09cf18bU, 0x3e2a80b43f9c015eU, 0x3d0681003f8d0075U, 0xbc00986d3f83f146U,
    0xbb3634aa3dcbfe2cU, 0xbc0d94203df820dbU, 0x3cab0be13e0764d2U, 0x3d5f907d3de2304eU, 0xbc6ebedb3d71825bU,
    0x3e79c1913f7870f5U, 0x3ec9edd4bf940a80U, 0xbc1a55af3f26d031U, 0xbe0ec991be00a266U, 0x3cac071c3ebf4c52U,
    0x3b09b292bc850e00U, 0x3a87c150badb963dU, 0x3966a8b03bb9e191U, 0x3b75a702bb024787U, 0xbb21006f3b9e7e4dU,
    0xbd9c0d92beb9e14fU, 0xbe1c5d404025e74dU, 0x3d1be188bf2639c7U, 0xbd7d9b94beda8122U, 0xbd473631be974fd1U,
    0xbe8401003e4e7db7U, 0x3d9687d93e9cf35aU, 0xbe083baf3ce314a0U, 0xbf60c965bf8f5217U, 0xbeedbaf03daa642cU,
    0xbeab49e83d39f7c7U, 0x3ec894bcbe059ed2U, 0xbe00c2bbbed2c943U, 0x3e881143be07ab01U, 0xbe2b98a33e1b7c1bU,
    0x3e40ca0e3ddfd29bU, 0xbdd65f81bd2b82a2U, 0xbe1743733e4fc955U, 0x3e28af093da9d686U, 0xbe6fe14cbd1cec44U,
    0x3afda0b6bf4b08d6U, 0xbebf45953ef413a1U, 0x3ee027523e08aeb0U, 0x3d1c1e3fbe69d0dbU, 0xbeef48ef3e346beaU,
    0xbed09c2f3de5df33U, 0x3e257e3c3e9427cdU, 0x3f871d37beb02db1U, 0xbcee6517bf31a39cU, 0xbf295daf3f866f98U,
    0x3f8a3bdbbd95b76dU, 0xbd9589bdbf2f1f76U, 0xbf3874cc3f8c3973U, 0x3f8719c53c645addU, 0x3d088b79bf254c23U,
    0xbda7c6c33ac4b068U, 0xbc482cb63d67322cU, 0xbdc54130be117a26U, 0xbd9b52523d462c62U, 0x3d899b063d3f0104U,
    0x3cabcd38be11b901U, 0xbe1bf9373c35f948U, 0xbdbb9fd13d1695cfU, 0xbb37ac1e3f91d9a9U, 0xbd05c9b83f6f9ac7U,
    0xbdc215393f19a41fU, 0xbebb99d23f0f9a9fU, 0x3f1ecfc23eae4584U, 0x3b1e06c1bf9e8d4fU, 0xbf02543ebf2c48f0U,
    0xbf2b55edbefb33b7U, 0xbdc28837bdba876aU, 0xbe0fa5a33cde07e2U, 0xbddcb0eebde05161U, 0xbe4dbc20be469257U,
    0xbe3c9008be3147eaU, 0xbdf7f3cabe514697U, 0xbfbe864cbe4dc5efU, 0xbf4f48943f56c39dU, 0xbf0964743e5f7318U,
    0xbda5b51fbee594baU, 0xbf46d445bf35cf56U, 0x3bc96e21bcc9dd3bU, 0xbc0a90a53c87c7bbU, 0xb986ea3c3b000106U,
    0x3b2c99b0b9c9a64aU, 0xbba91e3fbb56ea4fU, 0xbdcd7960bc86b502U, 0x3cb84fd43e4f1071U, 0x3dc293043e0e05e0U,
    0x3cb30eb43bcba3dfU, 0xbe2a81c9bc92d8faU, 0xbd1608723e45b991U, 0xbe8317b4be2458e8U, 0x3e8e25ba3eeb6703U,
    0x3c3b0451beb13cc6U, 0xbe5b59eabdffe22dU, 0x3eba8f813ea114c6U, 0x3dddcea6be125c47U, 0xbea6e37abe330635U,
    0x3ed083b73e8d001dU, 0x3dc2c5b9bd27303bU, 0xbecefa373c53272eU, 0x3ea1b9673e58cf93U, 0x3dfc74033e410c6fU,
    0xbef0c277bd1aca97U, 0x3dab82fb3f02fdbdU, 0xbf3b6fbabe8115b3U, 0x3d588f7abed7cbc0U, 0xbec4dcbcbf641c85U,
    0xbfafcbff3ea299f6U, 0xbda712d2be39eb60U, 0xbf34a79240789134U, 0xbf31fe5cbef75363U, 0xbf1b6772bddbf6e2U,
    0xbd940db1bf1b348aU, 0xbf1ce43fbdab5598U, 0xbde16c0f3d95e4c3U, 0x3e2f073ebf1afcc8U, 0xbf101e3abdbfe275U,
    0xbd803dbc3c9126f9U, 0xbeef844bbf20f9b5U, 0x3c1dd7e9bd15c925U, 0xbd2e95bdba3eb98dU, 0xbd908b84bc0ed7baU,
    0x3bb3997f3c3e601bU, 0x3b6667b43d249504U, 0xbba9dbb5bd3c56beU, 0x3c07a49d3d5737a1U, 0xbaeea2eabda1a8fbU,
    0xbf312d013e7d6724U, 0xbf56a68e3e9d1cadU, 0xbf4200933f324cc3U, 0xbe9fc51ebe5f5c0eU, 0x3f315207bf36866eU,
    0xbe8c6fa03e961972U, 0xbec86bee3ebc48e4U, 0xbef39d6c3ee4724cU, 0x3ec3429bc000ca25U, 0xbe85797c3f507bc8U,
    0xbd32aa1e3c85cc68U, 0xbccc267c3bb8c388U, 0xbdf0022abd094c4dU, 0xbdbc29e93c7eb26eU, 0xbd42b3bd3d9865bcU,
    0xbee675aebf2629b8U, 0xbdfd39cfbf7b43efU, 0x3bc5ab1fbdcdb294U, 0xbdeb3484bf6a64bcU, 0x3ea1553e3f0f11deU,
    0xbc1b09e43b1d7f1aU, 0x3aa0113b3b4bd559U, 0x3a6f164fbaf1ac4eU, 0x3a69daaf3bd151d7U, 0x3c2e9bda3a9f2719U,
    0xbd278f2dbe83a68fU, 0x3d40302cbe3fd74aU, 0x3cab739abe802200U, 0xbd8c483a3fb32e14U, 0x3c460ddbbe2a0daeU,
    0xbd5df3293d7a5216U, 0x3d995f703c9a2960U, 0x3d45ebdfbe35de26U, 0xbe5b30d63e89e149U, 0x3e6fc30a3e3f702fU,
    0xbe7f8552bdd5b3beU, 0xbe3582d23ec7a9d5U, 0x3db6714b3e82cfd3U, 0xbe7717c0bd03ea31U, 0x3f03fc22bf94bdc9U,
    0xbe3b77c7be872000U, 0xbebfc925be36eb05U, 0xbd459c89be5ae05aU, 0x3e662895be3a9458U, 0x3d7f189cbebc0b9aU,
    0xbd3b4d4d3c8a2320U, 0xbf26d3b2bd705cc9U, 0xbe4821d1bdef1f5dU, 0xbd9d9ab43ecb1a3aU, 0x3ef76ce1bd94d0f0U,
    0xbe00d83cbaa497c5U, 0xbe0e3accbdcfcdfaU, 0xbe8fe381be0f5651U, 0x3ea142a63ec2bed7U, 0x3f09e584be694e69U,
    0xbe7206983eb117f3U, 0x3e8211d73f583493U, 0x3f7faf89be0b167fU, 0x3d7feccb3e9ac01eU, 0x3ea78a1b3f8061eeU,
    0x3e18a9293ce8bfcdU, 0xb9933edcbeadcd0cU, 0xbe94b3673b8fed3aU, 0xbda49fde39d1a26cU, 0xbc98ff9abe7c8d06U,
    0xbea6bc73bda190baU, 0x3b5d0aadbd0c1655U, 0xbf886276be88ab78U, 0xbf304bed40387871U, 0x3ca578de3fe99b1eU,
    0x3f3d1f903f240918U, 0x3f99c25f3e07bf21U, 0x3e2d38bcbee6a9b9U, 0x3e1c2160bf730032U, 0xbe66af74bef5c77cU,
    0x3ea0b025bd8d3561U, 0xbdbfa4b53eae6313U, 0x3f0398943f2851e7U, 0x3f00e871be1d330aU, 0x3f070742be2c5a9cU,
    0x3ee5c2c3bdb4c101U, 0x3ed09a783c6c1ff5U, 0xc0044ba43b8c3117U, 0xbf7332d3bf6a6a94U, 0xbf55ae9bbf402533U,
    0xbeb7a4c5bf40d7bfU, 0xbf2470673e3f8bf0U, 0x3b3b80d23ee53905U, 0x3ac915fc3b18eae6U, 0xb9f54d483b826fbdU,
    0x3aa29053bbc52ff4U, 0x3bc957f9bc08f083U, 0x3ca183a9ba33f2baU, 0x3d9119dabd8748dbU, 0xbd4a9300bd1a0ed9U,
    0xbd796052bd1f4a5eU, 0x3e0398383d539e46U, 0x3dfed7a93c5673b5U, 0xbeed1a9cbd0a0168U, 0xbd8f32323ea557c1U,
    0xbddc5dadbee777c7U, 0xbc91ed483cc1f120U, 0xbdda14193dc33f17U, 0xbc1c94e53c065376U, 0xbe5db6693e6cd3c0U,
    0xbe99d0873c0081caU, 0xbe8decebbe5e0f73U, 0xbe468c943e7f66e8U, 0xbeecaf643e18489fU, 0xbe87d41ebe513aacU,
    0xbdde0e403e547027U, 0xbf068bf23ec385d5U, 0x3e3b04babe9017e2U, 0x3f181e833ea4b0e0U, 0x3e551f693d491a78U,
    0x3eb720bc3eaf550eU, 0x3ece37823d8efc5aU, 0x3e84ba32bc08c1e5U, 0x3e86591e3d8ff7f2U, 0x3cf83efc3ea397b6U,
    0xbf69d0ea3c02e64dU, 0x3c828701bb66f696U, 0xbdab5afbbf8994e3U, 0xbf9876923d75050bU, 0x3daac8babda65526U,
    0xbda5a796bfa21448U, 0xbfa334323e3514deU, 0x3bedabcebcff05f2U, 0x3dcdaa66bd26944eU, 0x3cca9d64bc6c4794U,
    0xbc5d7139bcc936ddU, 0x3cca99ecbbfe1383U, 0xbd01d9143b6a724bU, 0x3c227f9ebc7564eaU, 0x3c8161203cb2ebcfU,
    0xbe9d3a50bfb3404cU, 0xbdeb0b20bf84279bU, 0xbd99baf1bf446ae5U, 0x3d608956bf15df32U, 0x3e8f99babebb1e63U,
    0x3ea265163d99fd56U, 0x3ef6088e3c960f2dU, 0x3ed7a42b3e25bc4eU, 0x3e6cac40bc5afb5bU, 0x3e943f0e3ef7cfaeU,
    0xbbfd50cd3b8a7fc0U, 0x3cbfa641bd1bc9e0U, 0x3da07181bcfb9366U, 0x3a8d09afbde3ea74U, 0x3c28f7adbe3f7ca2U,
    0x3e06b00c3eed4352U, 0x3d36b33b3f32bd32U, 0x3e8a1d443ddf9d15U, 0xbd06af303f133d0cU, 0xbed5c5493f03ececU,
    0xba4f27c83bd7df15U, 0xbb4c3ad6bb380923U, 0x3b6b8c73bb90d4beU, 0x3b4277fb398cea60U, 0x3be9e5b4bc080e35U,
    0x3d9ac0babe48945fU, 0xbd23c75ebcd16ccbU, 0x3d68756e3ce5f84fU, 0xbdedb04dbd3081b1U, 0xbca5f8aebdf8609fU,
    0x3d07a0db3e379555U, 0xbe91e682be432378U, 0xbb4169653e3dc913U, 0xbd23ab27bc8bf12cU, 0xbe8c7af1bdd8964eU,
    0x3dcb85bb3e7a33daU, 0xbcf5ae17bd1f3cd0U, 0xbe6a56fdbe5161ccU, 0x3d08db183e5b452bU, 0x3d7cf85d3d44cb7aU,
    0xbda4b601be8de256U, 0x3c88faa53dca2289U, 0x3da0d3f13e054a19U, 0x3e653439be057be0U, 0xbe3326973de9ae0dU,
    0x3e6e5c49be00a626U, 0xbec30e7fbccfe97fU, 0xbd388e923debae60U, 0x3df4c9c13e3368e5U, 0xbe9091c93e0d32d6U,
    0x3d3e3f4a3e349bf2U, 0x3e92a3a23f407c8dU, 0x3e3dfa8b3d82eae7U, 0x3db53fe63e93c249U, 0x3ec5e5053df235d7U,
    0x3c8ca126bcd7b670U, 0xbc4c66fa3ef1cdadU, 0x3ee0e308bd117d9dU, 0xbcbd660cbc09faefU, 0xbd28a6143ed75cadU,
    0xbda420763b8c8398U, 0x3b7c1f283dc2348dU, 0x3dba31f93b534326U, 0x3d8324163bc34313U, 0x3b6ff2cd3bfaf39dU,
    0x3e0427b53d6304a1U, 0x3d30fc25bb6362a2U, 0xbe09031d3bf572a4U, 0xbe0a9f03bfd67659U, 0xbe0e8bf9bfae3e15U,
    0xbdcc7d24bf839dfaU, 0x3f3762c2be09ec77U, 0x3e0f7ab84037ec28U, 0xbd1eb6c7bde8acddU, 0xbe3e1da5bed414e7U,
    0xbe4418dfbeffcd46U, 0xbe3f04a4bf3e90a2U, 0xbe8e1993bf2f648dU, 0xbe6ed6a73df52b18U, 0xbe87ca533de78ca5U,
    0xbe8e44ba3dbd3455U, 0xbea3bc5e3dfac539U, 0x3f0671f83c4b128aU, 0x3e87e6573f14f2a1U, 0xbea015bf3f809a68U,
    0xbeb61dcd3fafbc39U, 0xbcccc77a4007c208U, 0x3b54f8a4401b1d6cU, 0xb81f4442bb16a904U, 0x3a6e0f743b176905U,
    0x3a29f0df3b72870aU, 0x3a440b663a874c7aU, 0xbd60c9853ba1349cU, 0xbcc4e98abc019d31U, 0x3d1b1c3f3d977525U,
    0x3d4200523d7624d5U, 0x3ca4d5e03d0dec5eU, 0x3b8d4e7b3d8614f7U, 0xbd64358b3d4617bbU, 0x3d281d49be36f022U,
    0x3cd4ee7dbda7d3a8U, 0xbdd27f6d3d321e09U, 0x3e22fd10be2e09a0U, 0x3d96f91bbd10953bU, 0xbe34f91e3d73f000U,
    0x3e1f8bdb3d06c059U, 0x3b9ed301bd99113aU, 0xbdd3cb393dab4fcbU, 0x3ce2f3a13e4db634U, 0x3d678f8bbb9c0698U,
    0xbe6540bdbcd31e8dU, 0xbebc8de43eef78dfU, 0xbfbe587cbd9dd8f3U, 0x3f848d4e3fb7e911U, 0x3e9e88c1bf18e49cU,
    0xbdae1fe83e32b2dcU, 0x3e34aa163e2af9beU, 0x3e133c15be25612aU, 0x3f584b3bbf429395U, 0xbf976ff2bcd49d8cU,
    0x3f5da66dbeb6fc7bU, 0xbe6e655b3e66e669U, 0x3e7a2f2c3f8e05a0U, 0x3f9b71b9bdf068c9U, 0x3d7b3bbf3e78234dU,
    0x3e3945883f913202U, 0x3f9643713c06e22dU, 0x3d556c9e3e4a5d05U, 0xbdbc1589be2c8927U, 0xbd154e0a3cc47c77U,
    0x3be12382be40bd2dU, 0xbe1804aa3d309d11U, 0x3a07f2c13cd6cdcbU, 0xbc60697abd9ad2bdU, 0xbdd5a4943d3125a3U,
    0x3e75b250bfc8ae56U, 0xbd9a0088bfbea0e5U, 0xbd232dd9bfb82ab4U, 0x3f1b7a32bff9c2b7U, 0x3f586231c040cc1bU,
    0x3ee80fd3bf2cfad9U, 0x3e8f9e7abf50b3b4U, 0x3df7a2d53e22e2c7U, 0x3f8fc642bf9f65abU, 0x3f26ea46be522f49U,
    0x3daff6debec0aef7U, 0x3d0e7513bed95e96U, 0x3ded9036bec47530U, 0x3e385153beae634cU, 0x3e680c5abe9383c5U,
    0x3e81fd9ebf2b145eU, 0x3e91215fbe94c7baU, 0x3f2ea4fbbee72b81U, 0x3fc3754c3f2f4997U, 0x3f898c593f158dcaU,
    0x3c6fb25f3cbeac66U, 0xba80c22f3b58cc0dU, 0x3bd229083bda2076U, 0x3b3a17263b1fdfadU, 0x3b67d46abc8d861dU,
    0xbd1cd2763efb9eccU, 0x3de6aca03e670154U, 0x3d90b1113bf829f0U, 0x3de8b0853e99a560U, 0x3df499013d7c8c11U,
    0xbe7ede023f4a2da7U, 0x3e3c227abf06515aU, 0xbe966664bf1505e0U, 0xbf0b53c23f1ec5b3U, 0xbe4de914bf41ed0bU,
    0xbc74f57bbda263c5U, 0xbe960e3c3ef5e8d1U, 0x3dac9237bf4fc6baU, 0xbdf6d6243e891886U, 0xbdef65513f42adbeU,
    0xbe9e4dd3bd1f8fc1U, 0xbec89ace3e96004fU, 0xbe17b2dd3e801bc9U, 0xbe3ca853bf194643U, 0xbf063b613ec8406cU,
    0x3e929398bf381542U, 0x3f214fc63e25975aU, 0x3f54857f3f69f1dcU, 0x3e64f13a3f264f29U, 0x3ecb675a3ecadeb2U,
    0xbe2f1aeebcc0ab7eU, 0xbf3dd0d53d0515e1U, 0x3dbb65f4bf6aeeecU, 0xbc914a7a3d8c1567U, 0x3d43b6f33ea5bc26U,
    0x3ed1248bbd2ea129U, 0xbd274f98bdce29edU, 0x3d02ffb73ec7a04aU, 0x3ee84787bdc1f9e7U, 0xbde6c7da3e0f619aU,
    0x3cbba95fbd3a7bf9U, 0x3b0573883e113b94U, 0x3df43c01bc191164U, 0x3d2916e83c5d98c6U, 0xbca33a003c151196U,
    0x3c90f84d3d6c90deU, 0x3cec820a3c6646b8U, 0xbf60658d3d1f6524U, 0x3f01d3fa3e8acdb7U, 0x3ed1bacebe89dcd4U,
    0x3d7230c83e264e7eU, 0xbeb8313d3e80b1b5U, 0x40975d443c2c5c98U, 0xbe5703f5bfff033cU, 0xbf8fe1fbbed8581dU,
    0xbee5902fbd749551U, 0xbf88287fbeb0d185U, 0xbe08855fbe404719U, 0xbe80d7333e0c7fabU, 0xbe3566853dc92c2eU,
    0xbdf4a254bb644829U, 0xbd9a900f3bdd9f9aU, 0x3f7f0a6fbd1afcd5U, 0xbf19ed11bea11864U, 0x3da773d93dac8e09U,
    0x3e850c67be049d23U, 0xbe9a29d9be66c050U, 0x3a8b21d13d28dd29U, 0x3aa28d273c0f940cU, 0x385113d4bb096d1aU,
    0x3a27d091bb83e938U, 0x3bb022bcb98a9973U, 0xc00df563bbdd8978U, 0x3e8a98cf3e033f0bU, 0x3f083420bb97b740U,
    0x3ea4c3243c4fc2e6U, 0x3eee61043d054273U, 0x3f8bda113d45209aU, 0xbe9491a73f13e39dU, 0xbe417b153eb0d93fU,
    0x3ea34b423ee7dfebU, 0x3ef73b0dbe2f0160U, 0xbcac92f73e7db5ccU, 0xbd407c4abebe7094U, 0xbd5a6df73d71fd11U,
    0xbe3f2fa7be34a2d0U, 0xbe19cfd5bd95dbcaU, 0xbe69d0d13de6951eU, 0xbe062082bc930a1bU, 0xbf0407793d5ed4bbU,
    0x3da495a03e22b3ccU, 0x3da650a7be4ddf77U, 0xbe09a6973e214353U, 0x3ea35f323f9fa800U, 0x3f61ce183f19a93fU,
    0x3f60095cbdfd1e19U, 0xbea0a7603ef439caU, 0x3f61a0043e5ff6adU, 0x3f320c01bd8b99d8U, 0x3e3ed2693e08d72eU,
    0x3e2dd6a73f09a3f7U, 0x3f2ac3cabeae2f0fU, 0xbea6186b3e229138U, 0x3e9c62a33f30f380U, 0x3f55041ebe8fdefcU,
    0xbeae91fe3ed9de39U, 0x3f2b05323f7deb88U, 0x3c6addf5be9699eeU, 0x3e9bac68be925992U, 0xbe8e44bf3d65f04cU,
    0x3db22e493e7a4856U, 0x3eb966acbeb37eeaU, 0xbe54cb263ce2bd91U, 0x3cd1a2c63ece86bfU, 0x3ea1baa3be499a05U,
    0xbf042fb63dc5cf92U, 0xbd0d4aecbf09b582U, 0x3e9680dbbf60d0daU, 0x3ed4f88dbf67f133U, 0xbe98874cbfd2ab60U,
    0x3f7470633b3c95b9U, 0x3f868e4cbe57fb74U, 0x3f93a2babec20775U, 0x3f303ed1bda0f47bU, 0x3f500ce9bf00dbe8U,
    0x3e0397fbbf2c19f9U, 0x3e128bd9bf1b7323U, 0x3e71f8a7bf115887U, 0x3e4bfd65bf22134fU, 0x3e54fe54bf1547dcU,
    0xbe3089203f4e2f65U, 0x3c3f800b3f9da8f9U, 0x3e9257763f1a3be2U, 0xbe2b03453f46feebU, 0x3f3c66ea3f34c5adU,
    0x3c7573a8bbe3e9deU, 0x3a83868f3b6290c0U, 0xbaeefc003b47dd49U, 0x3ab9564a39adfd9dU, 0xbc0f044a3b4df15bU,
    0x3d7e9a983e064983U, 0x3d8454c73e7215e2U, 0x3d8fc2483df13155U, 0xbd9063313ca27707U, 0xbd0398c63e01f179U,
    0xbe1409f73f404103U, 0xbcaaf6d73ed8afb3U, 0xbddfd88dbe288f39U, 0xbe782d433f4f9bf4U, 0xbf0521393ec61124U,
    0x3d7f97c8bde81f0bU, 0xbe306a213f35103bU, 0xbeecb7e13e3d57d1U, 0x3da7a9fabdfebe25U, 0xbdb958cd3f077dc2U,
    0xbe08651bbeb60ef6U, 0x3eb6cce5bea6823cU, 0x3e2cd0cd3e87f66dU, 0xbe4f58303e5ce1f6U, 0xbd4ed5663db879ebU,
    0xbf354549bf2b4885U, 0xbd234a893e44f393U, 0x3df50529be835e35U, 0xbe1a23bb3f001c66U, 0x3f14e9473e96d7c0U,
    0x3db2ae5abf044773U, 0xbf49e8903f75f921U, 0xbf010309bf2d654cU, 0x3ab2999f3fb01d26U, 0x3fabebd5bf19b47eU,
    0xbf452125bdabf08aU, 0xbc79358d3f971624U, 0x3f2ceb9cbf859634U, 0xbfb6ac6c3cf62f40U, 0xbd623ad33ea6c7adU,
    0xbc9c10aa3c6de2c0U, 0x3d4bfa3dbde1497fU, 0xbda42a3b3de4f689U, 0x3e1bc9d7bd4066d2U, 0xbc3ac0a2bdeaa998U,
    0xbda15c903deb45b0U, 0xbc0f12aabcc21275U, 0x3e8f70a6bd7dcb80U, 0x3e86a02f3da18292U, 0xbd78e0413c94fb0bU,
    0xbf0504643e033499U, 0xbddccb603e5030f7U, 0x3e21bd483f636378U, 0xbda5ce273f0787b0U, 0xbf044a4e3e9c2db3U,
    0xbf00aef43e43291cU, 0xbf6ebb183f145a0dU, 0xbe419b483f0b8522U, 0xbdfbb8e53e050569U, 0xbdd3c9433e1f330cU,
    0xbdf57eb93dbf0ee2U, 0xbe15b9393d4fa93cU, 0xbf092489bde34b5fU, 0xbee3e5903fb7bad7U, 0xbfceafd03fb8e6ecU,
    0xbf3bb80c400a510aU, 0xbfaad8f43fb8f83fU, 0x3b64a54e3e253fd4U, 0xba14560dbc698332U, 0xbbc65043bb3a423dU,
    0xbc0f5ff139dc6951U, 0xbbf50c3bbabdd989U, 0x3e0af7b73c6c33e4U, 0x3e31ba5f3e5e3a4aU, 0x3ea289b23e10a849U,
    0x3e79d99b3e8b1dd6U, 0x3e950bcfbce24635U, 0xbdc806b9bbfb737cU, 0x3e1f00d73ec80273U, 0x3e221cbcbe9deadcU,
    0x3e67d1cabec146c5U, 0x3ed9492e3e9c85b8U, 0x3dd9dc71bda00cbdU, 0x3e08acbdbe8d1d96U, 0x3ea808ed3e91cc9cU,
    0x3e60e5d9bdb44149U, 0x3e48b2cabdd88b95U, 0x3e1760823dd6bb86U, 0x3e91e0b93e1c040fU, 0x3e30037d3cd1addaU,
    0x3d2ce1a1be5fbccdU, 0x3ef7a1a23e2ce8f4U, 0x3f8006e53eddf5c7U, 0xbee033e73dc65ffcU, 0xbe2e558fbf10cd37U,
    0xbeebe7f2be77ce0aU, 0xbe7da4c6bdb4095eU, 0x3d10aa69bf2dec81U, 0x3f33a095bdfe2765U, 0x3f7cc9a43f3f60f8U,
    0x3eb3dbfcbe5130d1U, 0xbdd80b87bdfa3bcaU, 0xbd4de5cf3e5b69b6U, 0x3e25e6cbbd479d63U, 0x39b627ddbe0eae92U,
    0xbe235ea53e43c52fU, 0x3db0e5133d30ae6aU, 0x3aec17d2bdd6d613U, 0x3d7e58c53e7b0923U, 0x3d4e63563c022fe6U,
    0x3cc0379f3deaac4aU, 0x3e0d5226bcfc979eU, 0xbd8b43fd3ba97838U, 0x3bf7c9c93de69b78U, 0x3e295db3bcef3f31U,
    0xbf93f0713f020dc8U, 0xbf320f423d7b2424U, 0xbe0caee53d94fef8U, 0x3d8ea2143c87135dU, 0x3e10821fbe27cbb5U,
    0x3ed33210c00431bdU, 0x3db490fc3ed57625U, 0xbddf37733efe49e9U, 0xbeb914493f3c09d1U, 0xbeb414d040017e5cU,
    0xbeb008e23ce6c239U, 0xbeb113483d506a6bU, 0xbebc85dd3d169dacU, 0xbec0f6103dbe41deU, 0xbea8989b3da18de7U,
    0x3ec4540dbef1da03U, 0x3ecb5f053f12bc3dU, 0x3e627c813ef4f4a3U, 0xbef50fc33f49a0d0U, 0xbddf11b93f8607cfU,
    0xbbf504fc3caceca9U, 0x3b00c93abbb049d4U, 0xba1b52fabb51f2b6U, 0xbb02fc71bb6c76b6U, 0x3b93ccbdbca30434U,
    0xbdb5ddc93f872306U, 0x3d448771bd5b79b3U, 0x3d6316ddbe17379bU, 0xbe14c2b8be44decaU, 0x3d962095bf24696dU,
    0x3e3182febf04692aU, 0x3d5a91f7be7baf0aU, 0xbe6e3848be6f7924U, 0xbbac586dbe59ba69U, 0x3e898a9dbe9dddb4U,
    0x3e0d8e4dbe3256d0U, 0xbd64df5abdfe6836U, 0x3d695978be2d66eeU, 0xbd0d2e16be33202bU, 0x3c907c0bbdddc7fdU,
    0xbdf1b3a3bd9a943dU, 0x3e0d7e253d984217U, 0x3e7626e53eb0198aU, 0xbe41bdfe3cb8035eU, 0xbcd3f7fd3ea44f66U,
    0xbefcdae93f608984U, 0x3f3632e13da10c33U, 0x3d991c40bec8f519U, 0xbf0e233cbebe23fdU, 0xbe4ccebf3d0667cfU,
    0x3f054032bfc27f17U, 0xbe9985913f9e4aecU, 0xbeecd2493fa2ddb1U, 0x3bf3c03e3ef01faeU, 0x3ebf2907bf02028aU,
    0xbf17a6443ca23368U, 0x3cdcb66a3ef76d0aU, 0x3f114729bf2be2c4U, 0xbf5235fb3d803d11U, 0x3cf8892b3efd8b95U,
    0xbe8b83493db00271U, 0xb9b945a5bd2869d5U, 0x3c7208eabe3aad73U, 0xbe3b707fbd835e88U, 0x3cbc63d33cd6ce4cU,
    0x3d3dd346bdfbffd0U, 0xbe2475f8bd1a624aU, 0xbe6f39a4bc0b3f08U, 0xbeeb31943f2dc5e7U, 0xbf5c7f1c3f080060U,
    0xbee193e23e6b3603U, 0x3fc79c37bec01251U, 0x3cbe2b383e66e9d1U, 0x3e7d9de3bebba9dbU, 0x3ec5a890be8e1d88U,
    0x3e999b61beb41a93U, 0x3ed76e23bda8e6f5U, 0x3de8971b3d95ea51U, 0x3e1274993ce57bf2U, 0x3e4424cbbb827e37U,
    0x3d7f01d03c1b1203U, 0x3ac932713c92f4e0U, 0xbeb847e8bd23bd30U, 0xbe6866aa3e96fe67U, 0xbf498dff3e09c50cU,
    0xc09108813ea1d315U, 0xbee3285d402cb607U, 0x3b201f4b3ddc92faU, 0xbb233fd53d56fbdfU, 0xba014b25bad18b63U,
    0xbab70361bbfd9334U, 0x3bea32583b02b85bU, 0x3d21a980bd44dab9U, 0xbe0e6b24be5849beU, 0xbd21fbb5be4fcfa1U,
    0xbd12d3febde48bf2U, 0xbdf914ad3fc5e4cfU, 0xbe92b16dbe6bd24bU, 0x3e675f2b3daa33e9U, 0xbe372fed3e38977eU,
    0xbe492878bea9f0eeU, 0x3ec4f6953d8251b9U, 0xbeb3a4253ef02314U, 0xbe38e56bbe9bee36U, 0x3eabc217bddb15f4U,
    0xbe1328213e54e8a1U, 0xbdc6c21e3ea2d519U, 0x3eb5812c3d64a427U, 0x3ec7c06dbf31d317U, 0x3dcecb093f2e6e99U,
    0x3dee6cd8be6ce632U, 0xbe1584143e80c3eaU, 0x3ea0f9503eda586fU, 0x3d2827d83ee18df7U, 0x3e022cf73e06d5beU,
    0x3e79c9ff3e102e5cU, 0x3e545d693bbaa68aU, 0xbe0edfc2be624b2eU, 0x3d708fa23d203c5bU, 0x3d3a11dd3f5218aaU,
    0x3ec524523ddcee01U, 0xbc0b7a243e09dedaU, 0x3dcde9aa3e89c4d1U, 0x3e4abc81be22b2a2U, 0xbe8a20063ddb5783U,
    0x3e099d763daab5b3U, 0xbd114e63beadf1b4U, 0x3d0e1edb3daf181bU, 0xbe2e7007be43b37fU, 0xbd98d0433cb93b9eU,
    0xbc1fee00be6e7caeU, 0xbdc119e6bd8fdb36U, 0xbd6778453c971bb5U, 0xbc5df899be6f3071U, 0xbdfd721fbc14b2a4U,
    0x3f897178bf50e5b9U, 0x3df56ca3be432826U, 0xbf1c2fe03e5b3814U, 0xbf9160a63f7879cdU, 0xc03f5bb03fc97fbaU,
    0xbdb492123f09010eU, 0xbd56c9043ecadd82U, 0xbdc3080d3ea4e425U, 0xbe6ef7923eeaad7cU, 0xbf17a1783f8930fbU,
    0x3e502ede3e06e78aU, 0x3e70ab2a3e0e3cfaU, 0x3e849d923de3cc98U, 0x3e28465f3e1c8555U, 0x3e2675653e5126beU,
    0x3e3dec6d3f16f8c3U, 0x3e436f6d3f01be55U, 0x3c984ec33e625ea9U, 0xbcf0877cbdb9b7c2U, 0x3ea7e5ee3fb25654U,
    0xbc5a8230bc512795U, 0x3b05c8dfbbf5e561U, 0xbb0e5575ba46e550U, 0x3affb7bf3b01d8b6U, 0x3b89b0fc3c2b6589U,
    0xbd822713bd0cf6fbU, 0xbd946b4dbd2b8af4U, 0xbdb4b0c4bd25aec7U, 0x3ccd57203c94bf37U, 0x3cead9f3bdeb18ddU,
    0xbdceef33bdf27f42U, 0xbd536b86bd9135f0U, 0x3db026f9bdb3cab2U, 0xbe870017be955558U, 0xbd892787bda7a57aU,
    0xbd09fae5be246b55U, 0xbe498fffbdd0137aU, 0x3e283e4cbe01e0eeU, 0x3bc1583abe275375U, 0xbdf1408fbbd397e7U,
    0x3e4f4a6ebb60f291U, 0x3dcc119f3da98436U, 0x3d9134663eb3e0c3U, 0x3ec5e889bd7171edU, 0x3e0522683e20c173U,
    0xbf2d6dcbbebb0442U, 0xbe1f79ed3d34e2c5U, 0x3df12db8bddfe088U, 0xbf4b62003fb2b058U, 0xbf5a77e03cefe295U,
    0xbeac32bbbf0bf242U, 0x3d8fa0e4bea9a64dU, 0xbf0e91de3dc3db51U, 0xbdc03c343e04047dU, 0x3e28facebf130767U,
    0xbee83218bd7452d3U, 0x3c84998a3bce7c2fU, 0xbd28ce24bf2a875dU, 0xbf32fd50bd8b583dU, 0xbde8f0783bf997e8U,
    0xbe079a8d3cca7311U, 0x3b9d62c6bdd46a4fU, 0xbd801af0bdf50a25U, 0xbdcb1069bcd96c92U, 0xbb1cbd8bbdcd1273U,
    0x3c95d79a3a02bf5fU, 0xbcfdcdc6bc0f312eU, 0x3f673863bdcb641dU, 0x3f4a6e90bf3eb20fU, 0xbcb927f6be9eea7dU,
    0xbed03c87bc268552U, 0xbf21490cbeb032cbU, 0x3f0068953bd21f54U, 0x3f4c5d9dbedeb1d9U, 0xc032e293becae540U,
    0x3f4b0d0b3f3b7091U, 0x3f1a7b5bbdc45ab7U, 0x3db2f32a3da95e08U, 0x3d6240aebbcef35cU, 0x3dab78c5bdb98694U,
    0x3e01a1efbd18ad37U, 0x3d810bd3bd6bf88dU, 0xbf292c3fbc992beaU, 0xbe5af6f1bee411bdU, 0xbfb281d03c93afc1U,
    0x3d7be6eb3e4647b4U, 0x3ead521cbdb1d39bU, 0x3ba8d8923e441df4U, 0xba998905ba5c9a2eU, 0x3b020e8dba2b686dU,
    0xbaa28ba9ba366b89U, 0xbaa8a0bf3a994607U, 0xbebc8d663c00ba39U, 0xbe8d0ec9bc015a5fU, 0x3fff74b3bd7aae81U,
    0xbe51c312be02b4e7U, 0xbe3f894bbd8a20e7U, 0x3da7bebbbca0fc74U, 0x3e0d9b5ebd1a50a4U, 0xbdc09fb73cfd478bU,
    0x3ec920db3dc07756U, 0x3ed05dacbe282907U, 0xbd297c773e36a210U, 0xbfa13dd2be5cf63cU, 0x3e6fdf873e65683eU,
    0xbde79adfbe47533eU, 0xbe658c5dbec63cf1U, 0xbe57c887bdac8f65U, 0xbe864b673e61d6c5U, 0x3d33f04c3de1ecdaU,
    0xbaaa29663d5c4eb2U, 0xbdc39cef3e1fbd86U, 0xbf76f884bdac1eb2U, 0xbf6bc5053e2c879eU, 0x3ed08882bb3b72e3U,
    0x3f8ea755bfb6000eU, 0xbfb71c383e4eabd9U, 0xbc9b318d3fc18917U, 0x400bc302beed1c77U, 0x3fa6b0ff3e01b4b8U,
    0x3fce57113ea77276U, 0x3ed882023e8063ffU, 0x3e5356e73fb4f490U, 0x3f8d58ba3eb3c2e3U, 0x3e501f8c3e6febe9U,
